<unk>	0
<s>	0
</s>	0
▁	-3.31539
.	-3.43832
..	-4.35508
이	-4.44826
▁영화	-4.55805
...	-4.597
의	-4.70436
도	-4.75891
가	-4.77027
는	-4.8463
,	-4.88383
을	-5.00069
에	-5.07456
은	-5.21309
고	-5.26766
다	-5.27228
?	-5.28489
지	-5.30853
한	-5.48232
▁너무	-5.5102
를	-5.51155
!	-5.56133
만	-5.58406
▁정말	-5.64123
▁이	-5.65755
로	-5.66509
나	-5.84165
게	-5.85039
▁진짜	-5.85546
~	-5.8917
영화	-5.94408
과	-5.97837
기	-6.10489
하고	-6.14593
어	-6.15489
으로	-6.15832
라	-6.15975
인	-6.17328
점	-6.18402
에서	-6.24974
▁그	-6.25984
네	-6.26286
▁안	-6.27492
▁잘	-6.27763
아	-6.30086
와	-6.32016
리	-6.33262
들	-6.35152
▁왜	-6.36088
▁1	-6.3744
▁다	-6.37481
▁수	-6.39505
!!	-6.39634
서	-6.4002
▁더	-6.40435
▁이런	-6.42395
하는	-6.43896
해	-6.4406
요	-6.45772
....	-6.46521
▁아	-6.47823
거	-6.51339
▁그냥	-6.53016
스	-6.56158
자	-6.56566
▁드라마	-6.60526
네요	-6.6099
면	-6.62489
▁본	-6.67037
대	-6.67113
▁10	-6.67472
수	-6.6763
▁보고	-6.69072
▁연기	-6.72113
시	-6.72997
▁평점	-6.74038
지만	-6.74559
야	-6.76131
니	-6.769
음	-6.77136
▁영화를	-6.78164
▁내	-6.79053
▁좀	-6.79952
▁한	-6.80866
하게	-6.81546
함	-6.8158
사	-6.8239
일	-6.83127
하	-6.86733
이다	-6.88083
▁쓰레기	-6.90261
▁봤는데	-6.91899
▁없는	-6.93385
여	-6.94125
▁ᄏᄏ	-6.9457
진	-6.9459
▁참	-6.9479
정	-6.94854
보다	-6.94855
미	-6.94864
▁스토리	-6.94979
▁못	-6.95172
데	-6.95797
우	-6.96506
▁이거	-6.96632
▁영화가	-6.97239
▁최고의	-6.97243
▁영화는	-6.97303
하다	-6.9809
▁내가	-6.99033
▁완전	-6.99701
임	-6.99893
▁이건	-7.00291
▁없다	-7.00511
주	-7.00831
▁최고	-7.01279
들이	-7.01903
▁있는	-7.02267
구	-7.02496
▁2	-7.03069
까지	-7.03336
안	-7.03587
할	-7.03918
드	-7.04488
▁개	-7.04991
듯	-7.0549
▁좋은	-7.05703
!!!	-7.06041
는데	-7.0635
해서	-7.06947
ᄏᄏ	-7.07505
▁것	-7.09609
성	-7.10337
▁이렇게	-7.11159
▁보는	-7.11469
▁다시	-7.12119
적	-7.1228
▁이게	-7.12701
보	-7.12807
건	-7.13083
▁3	-7.14026
냐	-7.14089
상	-7.14305
치	-7.14706
^^	-7.14834
던	-7.15148
▁난	-7.17428
신	-7.18124
랑	-7.18218
▁나	-7.18484
중	-7.18803
▁보	-7.18841
▁말	-7.19954
장	-7.2035
보고	-7.20642
ᄏ	-7.22163
전	-7.24426
부	-7.25174
▁평점이	-7.25784
▁많이	-7.26032
▁뭐	-7.2631
▁넘	-7.27341
~~	-7.2812
세	-7.28178
1	-7.28564
인데	-7.30556
개	-7.30606
분	-7.31277
오	-7.31348
원	-7.31494
질	-7.31984
마	-7.31992
▁역시	-7.32002
▁작품	-7.32446
▁그리고	-7.33431
트	-7.33573
려	-7.33582
▁오	-7.33792
▁재밌게	-7.34115
▁지	-7.3455
비	-7.36164
년	-7.36242
▁볼	-7.36264
▁저	-7.36939
▁생각	-7.37171
▁별로	-7.37321
▁또	-7.3797
▁전	-7.38927
러	-7.39027
;;	-7.39536
▁마지막	-7.39691
했다	-7.4037
것	-7.40587
그	-7.40911
▁재미	-7.41086
히	-7.41263
▁하는	-7.41935
??	-7.42066
적인	-7.42252
'	-7.43638
2	-7.4374
▁감동	-7.43871
▁하	-7.44423
화	-7.44633
때	-7.45034
같은	-7.45505
진짜	-7.45895
하지	-7.46112
라고	-7.46909
▁꼭	-7.47055
내	-7.47633
▁주	-7.47744
▁아깝다	-7.47901
말	-7.49085
소	-7.49505
▁없고	-7.49703
▁가장	-7.50024
입니다	-7.50346
▁ᄏᄏᄏ	-7.51143
습니다	-7.52059
▁하나	-7.52177
급	-7.52428
▁시간	-7.5275
용	-7.53103
물	-7.53112
▁감독	-7.53526
▁무슨	-7.54045
)	-7.54606
▁이야기	-7.55282
▁기대	-7.55687
▁액션	-7.55866
더	-7.5676
▁보면	-7.5707
란	-7.57161
제	-7.58407
ᅲᅲ	-7.58451
무	-7.59082
좀	-7.59184
▁무	-7.59484
된	-7.59584
▁다른	-7.59846
▁조	-7.60047
▁지금	-7.6046
▁아니	-7.6048
너무	-7.61319
라는	-7.61349
▁만든	-7.61424
어요	-7.61531
▁사	-7.62957
▁별	-7.63075
씨	-7.63209
ᄏᄏᄏ	-7.63393
선	-7.63512
유	-7.6391
걸	-7.6394
▁한국	-7.64639
드라마	-7.64692
없는	-7.6559
식	-7.65924
▁할	-7.65959
편	-7.65992
있는	-7.66006
▁명작	-7.66016
운	-7.66017
▁중	-7.66231
;	-7.68345
줄	-7.68934
▁ᄏ	-7.69205
▁사랑	-7.69245
▁김	-7.69445
남	-7.6961
모	-7.69797
본	-7.69922
▁내용	-7.69967
이나	-7.70342
감	-7.71302
▁ᅲᅲ	-7.71408
정말	-7.71408
3	-7.71677
호	-7.72433
▁말이	-7.72667
▁처음	-7.73025
영	-7.73364
군	-7.73481
부터	-7.73757
▁대	-7.7377
ᅲ	-7.73913
▁영화다	-7.74045
▁같은	-7.74091
▁비	-7.74158
연	-7.7417
바	-7.74176
심	-7.74555
에게	-7.75037
▁연출	-7.75417
▁미	-7.75642
▁'	-7.76031
▁끝까지	-7.7609
명	-7.76343
▁배우	-7.76571
긴	-7.76925
들의	-7.77081
▁정	-7.77121
처럼	-7.77241
▁느낌	-7.7732
인지	-7.77592
▁일	-7.77895
▁유	-7.7815
▁두	-7.78345
당	-7.78585
조	-7.787
▁ᅳᅳ	-7.79636
▁때	-7.79803
▁고	-7.79811
디	-7.80328
류	-7.80785
▁짱	-7.80946
(	-7.80967
▁마	-7.8108
르	-7.81229
살	-7.81272
▁돈	-7.81355
▁솔직히	-7.81392
동	-7.81506
▁전혀	-7.81598
두	-7.81851
위	-7.82098
▁와	-7.82103
한다	-7.82177
▁어	-7.82536
합니다	-7.8301
▁하지만	-7.83165
며	-7.83209
▁제	-7.8321
래	-7.8352
죠	-7.83576
워	-7.83619
▁뭔가	-7.83836
희	-7.84331
▁기	-7.84412
▁좋다	-7.84489
▁일본	-7.84584
▁같다	-7.84707
타	-7.84933
단	-7.84939
▁대한	-7.84955
▁해	-7.85147
▁있다	-7.85269
린	-7.85574
▁재밌다	-7.86182
▁자	-7.86261
▁가	-7.86374
되는	-7.8638
난	-7.86977
▁아주	-7.87251
▁봤다	-7.8732
크	-7.87682
작	-7.88503
ᅳᅳ	-7.88745
▁굿	-7.8896
▁거	-7.89716
▁봐도	-7.9025
이랑	-7.90556
으면	-7.9084
하지만	-7.91353
▁알	-7.91542
▁사람	-7.91583
▁많은	-7.91619
노	-7.91945
때문에	-7.92094
준	-7.92124
▁좋아	-7.92125
▁ᄒᄒ	-7.92218
길	-7.92424
▁구	-7.92742
▁최악	-7.9321
간	-7.93688
재	-7.93956
▁모두	-7.94103
잘	-7.94389
없이	-7.94484
면서	-7.94614
▁여자	-7.95101
울	-7.95149
▁재미있게	-7.95279
레	-7.95346
들은	-7.95418
인가	-7.9544
저	-7.95691
하나	-7.95729
번	-7.95738
▁어떻게	-7.95755
▁신	-7.9613
▁시	-7.96189
이라	-7.96258
▁내내	-7.96455
▁대박	-7.96638
하면	-7.96674
판	-7.96734
프	-7.96775
▁계속	-7.96804
▁이걸	-7.96805
,,	-7.96846
▁나오는	-7.96982
▁그런	-7.97219
▁후	-7.97274
▁줄	-7.97344
▁소	-7.97577
▁내용이	-7.97987
▁코미디	-7.98168
▁않고	-7.98258
루	-7.98328
파	-7.99077
▁보기	-7.99111
-	-7.99175
엔	-7.99358
연기	-7.99565
▁최악의	-7.99754
▁이영화	-7.99813
발	-7.9989
▁배우들	-8.00113
▁아니라	-8.00287
경	-8.0049
▁부	-8.01075
었다	-8.01334
▁4	-8.01673
▁아닌	-8.01806
했던	-8.02765
민	-8.02827
날	-8.03284
▁모든	-8.0329
박	-8.03657
▁남	-8.0388
방	-8.03951
든	-8.04109
▁그래도	-8.04118
▁한번	-8.0427
▁주인공	-8.04286
▁애	-8.04339
생	-8.0481
겨	-8.05624
▁모	-8.05652
▁하고	-8.05823
▁재미없다	-8.05971
되	-8.06035
구나	-8.06182
이라는	-8.06422
피	-8.06865
▁이해	-8.07025
▁아니다	-8.07326
▁우리	-8.07586
▁딱	-8.07598
o	-8.07623
지는	-8.07775
점도	-8.08082
▁반	-8.08205
▁실망	-8.08287
까	-8.08414
▁남자	-8.08591
애	-8.08638
▁연기가	-8.09492
하네	-8.09496
▁7	-8.09617
▁듯	-8.09683
적으로	-8.09707
시간	-8.09719
▁아름다운	-8.09776
티	-8.09879
봤는데	-8.09919
국	-8.10142
▁5	-8.10185
▁장	-8.10667
▁제일	-8.10782
▁만드는	-8.10926
림	-8.11061
반	-8.11178
▁욕	-8.11708
없다	-8.11986
▁인생	-8.12246
▁근데	-8.12405
생각	-8.12406
▁바	-8.12487
10	-8.12555
하네요	-8.1259
▁않은	-8.12591
▁전개	-8.12763
▁애니	-8.13062
▁이제	-8.13077
즈	-8.13641
▁감독이	-8.14128
▁스릴러	-8.146
▁않는	-8.14694
님	-8.14871
▁되	-8.14962
▁연기도	-8.15274
e	-8.15417
보면	-8.15431
▁음악	-8.15451
▁나는	-8.1564
▁수준	-8.15732
이고	-8.15781
▁제대로	-8.15853
지도	-8.15967
후	-8.16238
형	-8.16434
▁이상	-8.16443
한테	-8.16448
ᄒᄒ	-8.16492
이란	-8.16854
▁보다가	-8.16891
▁장면	-8.1699
▁절대	-8.17097
▁스토리가	-8.1755
▁8	-8.17587
▁내용도	-8.1776
▁개봉	-8.17829
보는	-8.17944
▁건	-8.17967
회	-8.18532
터	-8.18538
산	-8.18727
▁요즘	-8.18881
▁추천	-8.19015
▁강	-8.19036
져	-8.19144
▁보다	-8.19168
점이	-8.19246
관	-8.19258
♥	-8.19497
니까	-8.19526
다니	-8.19578
▁아니고	-8.19614
카	-8.19704
으	-8.19708
차	-8.19881
▁OO	-8.20685
▁우	-8.20951
▁막장	-8.20957
들을	-8.20995
현	-8.21007
▁0	-8.21187
태	-8.21239
▁9	-8.21377
▁공포	-8.21476
배	-8.21571
!!!!	-8.21609
▁반전	-8.21658
겠다	-8.21974
▁기억	-8.22028
공	-8.22197
▁스	-8.22378
4	-8.2248
~~~	-8.22553
▁싶다	-8.22664
▁걸	-8.22696
ᄒ	-8.22708
▁끝	-8.23438
▁속	-8.23569
키	-8.23986
어서	-8.24294
▁영화라고	-8.24389
▁표현	-8.24839
하기	-8.24862
▁시간이	-8.25029
▁때문에	-8.25044
년대	-8.2537
▁박	-8.25782
▁아직도	-8.25824
토	-8.26128
짱	-8.26247
종	-8.26305
▁영화의	-8.26513
▁여운이	-8.26727
▁아까운	-8.26856
버	-8.2694
못	-8.2696
양	-8.27242
▁주는	-8.27501
다가	-8.27541
건지	-8.27587
▁차라리	-8.2782
▁파	-8.27919
속	-8.28125
왜	-8.28265
▁나름	-8.28488
▁재미도	-8.28493
""	-8.29098
▁재밌어요	-8.29222
/	-8.29486
▁엄청	-8.29591
▁좋았다	-8.29693
▁나온	-8.2973
▁남는	-8.29847
했는데	-8.2988
▁특히	-8.29994
▁영화입니다	-8.30076
▁되는	-8.30154
라도	-8.30174
▁걍	-8.30328
▁피	-8.30603
ᅳ	-8.30622
이라고	-8.30711
▁도대체	-8.30738
▁불	-8.30825
▁보면서	-8.30879
▁미국	-8.30901
▁진심	-8.30972
▁공	-8.31068
▁조금	-8.31205
문	-8.31744
매	-8.31881
예	-8.32003
▁배	-8.32016
▁눈	-8.32022
점은	-8.32026
망	-8.32106
▁스토리도	-8.32428
▁우리나라	-8.32552
▁대사	-8.32974
집	-8.332
▁오랜만에	-8.33436
평점	-8.33471
▁감독의	-8.33496
뿐	-8.33668
죽	-8.33833
▁나도	-8.33865
력	-8.34059
▁캐릭터	-8.34226
인듯	-8.34527
▁멋진	-8.34533
▁마지막에	-8.34893
▁원	-8.34919
는게	-8.35074
▁뻔한	-8.35125
따	-8.35167
▁공포영화	-8.3529
▁만들어	-8.35301
실	-8.35477
참	-8.35496
▁이해가	-8.35576
ᅮᅮ	-8.35964
는거	-8.3625
해요	-8.36347
▁결말	-8.36499
▁영상	-8.36538
것도	-8.36607
;;;	-8.36626
▁동	-8.36789
▁몇	-8.36806
정도	-8.36825
▁정도	-8.36915
▁봤습니다	-8.37205
달	-8.37295
▁없음	-8.37387
▁시리즈	-8.37478
초	-8.37561
▁좋아하는	-8.37565
▁세	-8.37631
▁ᄏᄏᄏᄏ	-8.37684
▁노	-8.37692
▁좋고	-8.38048
스토리	-8.38264
▁봤던	-8.38272
▁서	-8.38467
▁시작	-8.38502
▁B	-8.38548
밖에	-8.3861
▁생각이	-8.39115
▁쓰	-8.39138
▁눈물	-8.39266
▁수작	-8.39295
▁진	-8.39343
???	-8.39795
▁20	-8.4014
▁어떤	-8.40246
이런	-8.40248
▁OOO	-8.40385
▁지루하고	-8.40433
사람	-8.40519
만큼	-8.40578
쳐	-8.40713
▁지루한	-8.40727
배우	-8.40832
ᄏᄏᄏᄏ	-8.40835
▁공감	-8.40839
▁영	-8.40855
려고	-8.40896
▁지루함	-8.4092
더라	-8.40936
움	-8.41082
해도	-8.41176
▁재미가	-8.41362
포	-8.41366
역	-8.41474
장면	-8.4164
▁싶은	-8.41903
▁재밌	-8.41944
▁가슴	-8.42044
▁영화에	-8.42207
체	-8.42624
봤다	-8.42663
하며	-8.42918
▁재밌는	-8.42924
▁원작	-8.43031
▁오늘	-8.43162
▁ᅲ	-8.43165
▁뭘	-8.43316
코	-8.43356
▁될	-8.43401
있다	-8.43417
그냥	-8.43454
▁망	-8.43455
중에	-8.43477
▁초	-8.43514
넘	-8.4353
없	-8.43578
▁함께	-8.43604
▁뭔	-8.43992
었는데	-8.44231
계	-8.44569
▁막	-8.44783
▁사람이	-8.44832
7	-8.44959
▁졸작	-8.44971
▁최고다	-8.44987
▁괜찮은	-8.44987
▁배우들의	-8.45047
▁울	-8.45308
▁^^	-8.45364
던데	-8.45371
▁없이	-8.45375
▁큰	-8.45774
▁개인적으로	-8.45786
악	-8.45791
d	-8.45946
꺼	-8.46013
등	-8.4607
▁날	-8.46082
▁된	-8.46157
5	-8.46197
▁재	-8.4628
석	-8.46307
▁만들	-8.46354
▁그저	-8.46403
▁노래	-8.46562
▁알바	-8.46631
탄	-8.46745
▁보는내내	-8.46765
▁나오	-8.46908
▁애니메이션	-8.47199
▁없	-8.47412
격	-8.47556
▁얼마나	-8.47672
▁않	-8.47718
▁못한	-8.47918
케	-8.4805
▁여	-8.48169
▁안되는	-8.48192
는지	-8.48254
▁보세요	-8.48532
불	-8.48606
▁연기력	-8.48638
▁연	-8.49043
▁심	-8.49219
극	-8.49245
잼	-8.49264
▁기분	-8.49392
▁아무리	-8.49426
않	-8.49493
▁캐스팅	-8.49554
~!	-8.49611
▁예	-8.49765
▁허	-8.50008
▁인간	-8.50193
▁필요	-8.50196
,,,	-8.50212
릴	-8.50371
▁영화로	-8.50488
금	-8.50504
승	-8.50565
▁사실	-8.50629
갈	-8.50681
녀	-8.50734
였다	-8.50925
병	-8.51279
▁후회	-8.51485
▁지루하다	-8.5161
▁발	-8.51676
하면서	-8.51735
▁"	-8.51936
▁6	-8.51953
▁매	-8.51971
▁기억에	-8.52072
s	-8.52096
대로	-8.52153
사랑	-8.52486
▁제목	-8.52601
▁시나리오	-8.52793
▁최	-8.52815
t	-8.52862
최고	-8.53027
▁머	-8.53118
▁아이	-8.5323
감독	-8.53278
▁성	-8.53491
스트	-8.54109
▁결국	-8.54111
a	-8.54401
▁매우	-8.54431
▁소재	-8.54571
볼	-8.54621
했음	-8.55013
▁살	-8.5517
▁제발	-8.55224
강	-8.5535
▁만화	-8.55361
감동	-8.55395
▁연기는	-8.55401
▁그렇게	-8.55448
업	-8.55559
언	-8.55627
▁들	-8.55735
작품	-8.55777
6	-8.56681
니다	-8.56731
리는	-8.57076
▁볼만	-8.57371
능	-8.57583
기에	-8.57643
▁사람들	-8.57936
구만	-8.58086
절	-8.58089
슨	-8.58293
▁차	-8.5838
▁같이	-8.59031
학	-8.59065
▁좋아요	-8.59299
돈	-8.59411
주는	-8.59447
▁모르겠다	-8.59538
▁분위기	-8.59919
▁것이	-8.601
액션	-8.60172
▁설정	-8.60292
▁코믹	-8.60335
보단	-8.60367
▁있	-8.60517
▁있고	-8.60609
▁봤어요	-8.60636
하는데	-8.60702
▁화	-8.60702
▁강추	-8.60765
8	-8.60793
봐도	-8.60809
▁보지	-8.60962
했	-8.61041
통	-8.61328
▁졸	-8.61356
봄	-8.61381
증	-8.61414
▁하나도	-8.61567
점을	-8.61703
이야	-8.61799
▁""	-8.61946
▁극장에서	-8.61984
▁선	-8.62006
이었다	-8.62048
찍	-8.6206
이지만	-8.62085
▁마음이	-8.62106
▁평	-8.62188
▁맞	-8.62309
▁억지	-8.62367
▁위해	-8.62405
▁더빙	-8.62575
▁준	-8.62642
담	-8.62653
▁인	-8.62721
봐	-8.62831
▁한국영화	-8.62979
▁않는다	-8.63029
▁별점	-8.63074
▁문제	-8.63123
너	-8.63163
된다	-8.63198
▁너무나	-8.63286
▁웃	-8.63391
▁위한	-8.63402
이네	-8.63493
▁애들	-8.63719
투	-8.63793
▁없어	-8.63974
▁긴장감	-8.6429
입	-8.6435
글	-8.64402
온	-8.6446
▁보게	-8.64463
▁가족	-8.64698
기는	-8.65036
알	-8.65052
잡	-8.65057
설	-8.65273
론	-8.65276
▁재밌음	-8.65315
천	-8.65607
▁한다	-8.65934
교	-8.66195
▁총	-8.66241
그리고	-8.66318
재미	-8.66494
머	-8.66521
군요	-8.66601
가는	-8.66872
짐	-8.66876
▁몰입도	-8.67027
▁존나	-8.67266
ᅮ	-8.67522
▁명	-8.6767
▁주연	-8.6777
▁너	-8.67844
▁잼	-8.67919
▁느낌이	-8.68049
▁있을	-8.68166
쓰	-8.68194
기도	-8.68261
▁ᄒ	-8.68275
맨	-8.68569
▁편	-8.68584
▁봐야	-8.68593
9	-8.68652
▁그만	-8.68655
▁행복	-8.68682
테	-8.68729
근	-8.68754
김	-8.68937
▁대체	-8.68942
▁누가	-8.692
인줄	-8.69652
결	-8.69667
▁미친	-8.69685
▁눈물이	-8.6969
▁예술	-8.69785
버린	-8.69806
▁매력	-8.69914
▁로맨스	-8.69937
먹	-8.7024
▁내용은	-8.70366
▁위	-8.70471
▁상	-8.70484
▁훨씬	-8.7051
뭐	-8.70534
h	-8.70821
내용	-8.70916
행	-8.71063
건가	-8.71103
색	-8.7118
▁현실	-8.71341
▁정신	-8.71424
외	-8.71603
을까	-8.71621
▁알고	-8.71735
락	-8.71776
▁갈수록	-8.71777
▁입	-8.71847
▁CG	-8.72078
▁그나마	-8.722
▁감동이	-8.72239
▁가슴이	-8.72301
창	-8.72311
▁영화네요	-8.72315
이네요	-8.72371
점대	-8.72744
수준	-8.7299
쓰레기	-8.73005
▁죽	-8.73104
▁적	-8.73141
▁꽤	-8.73151
었던	-8.73435
▁결말이	-8.73439
▁토	-8.73448
▁기억이	-8.73749
▁ᅮᅮ	-8.73763
▁엔딩	-8.73875
었음	-8.73901
에도	-8.73915
▁밖에	-8.73925
▁없었다	-8.73988
해야	-8.74111
▁전쟁	-8.74239
▁음	-8.74746
영화는	-8.74774
▁재미없음	-8.74916
아니	-8.75097
▁발연기	-8.75107
▁호	-8.75176
▁재밋	-8.75279
▁엄마	-8.75367
거야	-8.75548
▁극	-8.75666
▁마음	-8.75761
다고	-8.75975
▁중국	-8.76044
났	-8.761
▁백	-8.76136
직	-8.76243
▁단	-8.76308
난다	-8.7637
▁구성	-8.76438
▁보여주는	-8.76439
▁유치	-8.76626
잇	-8.76708
▁어설픈	-8.76715
▁지루	-8.76841
▁그래서	-8.7686
보니	-8.7689
재밌	-8.76892
▁자체	-8.76904
▁잡	-8.7691
▁노잼	-8.76979
▁따라	-8.77015
라서	-8.77043
션	-8.77073
여자	-8.77171
▁들어	-8.77173
▁재밌고	-8.77283
▁물	-8.7741
▁똥	-8.77536
▁-	-8.7765
▁쓰레기영화	-8.77652
▁연기를	-8.77698
▁작가	-8.77781
▁다큐	-8.77975
▁않다	-8.78091
블	-8.78106
이라도	-8.78263
+	-8.78274
나는	-8.78324
환	-8.78376
▁타	-8.7878
평	-8.79129
씬	-8.79161
▁뿐	-8.79239
년이	-8.79309
완전	-8.79367
새	-8.7939
이상	-8.79403
권	-8.79403
소리	-8.79404
있	-8.79544
했지만	-8.79571
좋아	-8.79622
▁찾아	-8.79711
나오는	-8.79723
놓	-8.79754
없고	-8.7992
▁재미있다	-8.80025
칠	-8.80302
▁영화중	-8.80303
▁주고	-8.80334
기를	-8.80367
▁딸	-8.80378
▁그러	-8.80396
▁열	-8.80665
▁다들	-8.80691
▁감	-8.80885
▁아쉽다	-8.80895
▁걸작	-8.81018
▁시즌	-8.81095
▁길	-8.81337
▁평가	-8.81735
았	-8.81904
"	-8.81908
이거	-8.81989
▁간만에	-8.82058
▁영화관에서	-8.82101
나요	-8.82182
짓	-8.8234
▁성룡	-8.82374
될	-8.82397
열	-8.8249
▁손	-8.82619
▁높	-8.82716
▁사람들이	-8.82772
백	-8.82878
i	-8.82894
▁존	-8.82958
▁잔잔한	-8.83074
▁자기	-8.83109
▁소리	-8.83212
▁치	-8.83316
▁어느	-8.83342
땜에	-8.83379
▁감동도	-8.83468
듯한	-8.83605
>	-8.83731
▁좋	-8.83852
플	-8.83874
레이	-8.84033
싶	-8.8404
▁의미	-8.84137
▁좋은데	-8.84283
느낌	-8.84526
▁30	-8.84711
▁당시	-8.84828
이건	-8.84897
할수	-8.8505
▁전부	-8.85064
▁감동적인	-8.85172
▁모습	-8.85242
▁맘에	-8.85342
라면	-8.85409
순	-8.85477
▁것을	-8.8552
▁영화였다	-8.85631
▁재미없	-8.85672
막	-8.85725
▁바로	-8.858
▁변	-8.85917
친	-8.85931
에는	-8.86066
▁같아요	-8.8632
▁아님	-8.86347
▁약	-8.86645
영화를	-8.86707
▁있을까	-8.86774
▁대해	-8.86945
▁외	-8.86948
▁것도	-8.87125
▁재미있는	-8.87211
었어요	-8.87235
할때	-8.87324
▁생각보다	-8.8735
▁생각을	-8.87496
▁진정한	-8.87585
▁갈	-8.87665
침	-8.8769
▁상당히	-8.87935
약	-8.87963
거지	-8.87971
▁약간	-8.88015
됨	-8.88407
▁출연	-8.88437
치는	-8.88624
또	-8.88716
▁배경	-8.88864
있고	-8.89
▁얼굴	-8.89085
▁그대로	-8.89364
▁준다	-8.89441
▁점수	-8.89466
▁친구	-8.89594
것이	-8.89716
▁네이버	-8.89782
께	-8.89826
▁야	-8.89925
▁같은데	-8.90125
짜	-8.90225
▁장난	-8.90339
▁스토리는	-8.90453
같이	-8.9046
낸	-8.90523
구요	-8.90764
▁실	-8.90868
▁웃기	-8.90889
눈	-8.90902
▁중간에	-8.90951
▁배우들이	-8.9109
이야기	-8.91122
▁판타지	-8.91209
범	-8.9135
▁높은	-8.91421
▁감동을	-8.91472
▁여주인공	-8.91498
다는	-8.91544
이지	-8.9176
였음	-8.91782
땐	-8.91828
▁감성	-8.91879
빠	-8.91904
▁거의	-8.91954
▁나왔	-8.92152
▁여기	-8.92184
기만	-8.92315
▁먹	-8.92379
표	-8.92391
▁충격	-8.92404
놓고	-8.92422
▁재미는	-8.92495
▁정도로	-8.92546
▁살아	-8.92552
름	-8.9256
편이	-8.92631
끼	-8.92848
▁했는데	-8.92915
는건	-8.92933
▁재미있어요	-8.92933
y	-8.93004
없음	-8.93064
리고	-8.93076
▁재미없는	-8.93187
▁나와서	-8.932
▁다음	-8.93403
▁뭐야	-8.93439
▁힘들	-8.93532
▁아무	-8.93619
▁볼만한	-8.93628
수가	-8.93717
완	-8.93758
더니	-8.93817
p	-8.93825
ᄋ	-8.93927
▁스릴	-8.94066
▁당	-8.94115
▁얘기	-8.94137
▁재밌네요	-8.94294
▁웃음	-8.94322
척	-8.94448
▁있지만	-8.9454
부분	-8.94602
▁분	-8.94706
▁오래	-8.94856
▁봤지만	-8.94929
▁카	-8.95154
에선	-8.95218
들도	-8.95264
남자	-8.95434
▁천	-8.95688
▁영화인데	-8.95744
조차	-8.95773
셨	-8.95934
나오	-8.95989
록	-8.96222
▁장르	-8.9641
영화가	-8.96437
▁이영화를	-8.9645
▁된다	-8.96592
▁뭐지	-8.96699
▁추억	-8.96726
▁줄거리	-8.96843
b	-8.96952
했습니다	-8.97072
▁있었	-8.97106
편은	-8.97165
▁봐서	-8.97191
▁마음에	-8.97361
스러운	-8.97406
▁추	-8.97616
▁등	-8.97619
▁관객	-8.97627
햇	-8.97666
웃	-8.97743
▁각본	-8.9781
k	-8.97837
▁악	-8.97838
▁굉장히	-8.98019
▁감정	-8.98279
▁제작	-8.98312
았다	-8.98356
▁보니	-8.98552
▁갑자기	-8.98675
욕	-8.98717
▁장면이	-8.98781
▁예상	-8.98817
▁글	-8.98933
▁끝나	-8.9913
▁어디서	-8.99249
▁왕	-8.99299
▁경	-8.99368
들에게	-8.99507
D	-8.9951
0	-8.99544
해라	-8.99577
치고	-8.99609
건데	-8.99639
▁비교	-8.99768
▁이딴	-8.99799
▁올	-8.99878
▁게	-8.9988
▁초딩	-9.00103
었	-9.00142
되어	-9.00172
▁ᅳ	-9.00233
▁영화임	-9.00278
▁제가	-9.00282
▁훌륭한	-9.0032
근데	-9.0034
을때	-9.00359
들어	-9.00456
베	-9.00469
▁새로운	-9.00696
▁저런	-9.00772
▁있어서	-9.0079
▁극장판	-9.0084
▁많	-9.0096
▁원작을	-9.00975
▁나의	-9.01022
▁머리	-9.01184
▁뭐냐	-9.01225
뻔	-9.01387
왕	-9.01478
▁몸	-9.01635
▁허접	-9.01695
훈	-9.01742
▁말도	-9.01936
커	-9.01936
~!!	-9.01965
습	-9.02098
혜	-9.02109
▁그리	-9.0211
진다	-9.02132
목	-9.02161
어야	-9.02399
처	-9.02499
▁방송	-9.02529
겠지	-9.02573
린다	-9.02687
▁90	-9.02699
♡	-9.02751
출	-9.02883
▁코	-9.02909
했어요	-9.02934
▁아직	-9.02944
▁평점을	-9.03013
▁화면	-9.03014
른	-9.03085
▁나이	-9.0311
▁달	-9.0317
정도로	-9.03209
한거	-9.03345
▁양	-9.03363
▁감독님	-9.03416
r	-9.03505
▁주제	-9.03604
▁영상미	-9.03757
슴	-9.03788
▁베	-9.03839
였	-9.03877
▁여배우	-9.03898
월	-9.04004
▁생각하게	-9.04067
▁힘	-9.04191
▁대단한	-9.04334
▁포	-9.04395
퍼	-9.04409
▁항상	-9.04509
▁메	-9.04519
느	-9.04533
▁포스터	-9.04604
련	-9.04622
▁일단	-9.04659
▁크	-9.047
▁주인공이	-9.04748
▁사회	-9.04785
▁봤음	-9.04854
▁뒤	-9.04928
간다	-9.05118
빈	-9.05159
거다	-9.05307
▁안되	-9.05334
▁좋은영화	-9.05417
▁번	-9.05554
▁흥행	-9.05562
▁만	-9.05574
▁버	-9.05666
별	-9.05765
채	-9.05887
▁간	-9.05971
▁성우	-9.06078
세요	-9.06133
다시	-9.06149
▁있어	-9.0618
▁그런지	-9.06214
숙	-9.06232
▁봐라	-9.06268
길래	-9.06436
좋	-9.06563
▁자체가	-9.06589
향	-9.06596
▁못하는	-9.06631
놈들	-9.06707
마지막	-9.06732
슬	-9.06738
틀	-9.06739
▁나올	-9.06752
▁그러나	-9.0678
허	-9.06781
광	-9.06792
▁암	-9.0681
듬	-9.07147
▁꿀잼	-9.07235
▁비해	-9.0743
▁혼자	-9.07583
▁개연성	-9.07683
▁비디오	-9.07708
▁집중	-9.07771
으니	-9.07809
별로	-9.07832
▁누구	-9.07873
추	-9.07893
▁패	-9.0817
▁처음부터	-9.08205
했고	-9.08225
으나	-9.0823
▁싶	-9.08257
보기	-9.08296
▁가지고	-9.08429
효	-9.08475
▁저는	-9.0849
복	-9.08525
▁뭐가	-9.08561
▁충분히	-9.08656
년전	-9.08852
▁있는데	-9.08863
▁없어서	-9.08869
▁언제	-9.08946
▁아까움	-9.08986
하냐	-9.09025
철	-9.0911
▁맛	-9.09118
▁짜증	-9.09148
▁삼	-9.09186
▁TV	-9.09203
_	-9.09275
▁산	-9.09295
▁만들었	-9.09391
▁빨리	-9.09395
▁궁금	-9.09402
▁관	-9.09426
츠	-9.09481
같다	-9.09518
▁세계	-9.09531
돌	-9.09719
▁이런영화	-9.09868
였는데	-9.09952
덕	-9.09999
적이	-9.10007
법	-9.10066
처음	-9.10085
▁볼수	-9.10118
기대	-9.1014
이라면	-9.1023
좋은	-9.10387
▁옛날	-9.10425
품	-9.10546
▁순간	-9.10556
▁했다	-9.10634
▁사람은	-9.10659
▁점점	-9.10717
▁봐	-9.1075
▁너무너무	-9.10816
끝	-9.10925
합	-9.11009
하니	-9.11112
쉬	-9.11118
▁책	-9.11168
▁잠	-9.11195
▁있었다	-9.11241
▁(	-9.11271
▁몰입	-9.11285
m	-9.11318
▁생	-9.1143
메	-9.11512
거나	-9.11544
▁봄	-9.11578
c	-9.11594
▁종	-9.11658
OO	-9.11712
▁영화도	-9.11715
▁잘못	-9.11715
▁안된다	-9.11732
적이고	-9.11861
▁삼류	-9.12063
▁나와	-9.12377
쯤	-9.12395
▁꿈	-9.12508
귀	-9.12596
▁레	-9.12609
▁질	-9.12717
▁같	-9.12746
▁여주	-9.12761
▁역	-9.12912
▁tv	-9.13027
브	-9.13061
▁따	-9.13069
▁좋네요	-9.13103
▁부족	-9.13233
지금	-9.13253
▁잼있	-9.13351
최악	-9.13497
u	-9.1355
▁good	-9.13562
▁나온다	-9.13582
주의	-9.13591
▁더욱	-9.13617
여서	-9.13618
▁이유	-9.13646
배우들	-9.13868
▁작	-9.13879
라니	-9.1389
▁통	-9.13932
내가	-9.14047
▁요	-9.14091
▁현	-9.14169
벌	-9.14187
삼	-9.14332
▁하지	-9.14353
▁재밌는데	-9.14432
g	-9.14455
시대	-9.14502
▁멜로	-9.1451
▁돌	-9.14623
각	-9.14759
▁시절	-9.14824
▁그닥	-9.14856
되고	-9.14876
▁b	-9.15094
▁써	-9.15303
술	-9.15759
▁순	-9.15906
▁좋겠다	-9.15975
▁첨	-9.1605
곡	-9.16053
잖아	-9.16194
뜨	-9.16244
▁보여주	-9.16289
▁선택	-9.16367
▁것은	-9.16406
런	-9.1646
거냐	-9.16496
▁무조건	-9.1653
▁도저히	-9.16558
▁한마디로	-9.16578
▁쳐	-9.16614
▁불륜	-9.16765
▁엄청난	-9.16773
▁유치한	-9.16839
사람들	-9.16849
겟	-9.16855
도록	-9.17027
▁참고	-9.1712
▁지루해	-9.17123
▁재밌었다	-9.17177
▁과거	-9.172
▁어릴때	-9.17214
▁새	-9.17234
▁노력	-9.17263
잔	-9.17318
이라니	-9.17338
익	-9.17408
규	-9.1744
▁상황	-9.17572
▁망작	-9.17615
▁해서	-9.17629
연출	-9.17677
▁더럽게	-9.17751
▁아닌가	-9.17836
▁전개가	-9.17884
전개	-9.17889
▁이영화는	-9.17913
놈	-9.17944
▁돌아	-9.17992
쪽	-9.18018
▁아쉬운	-9.18076
▁다시봐도	-9.18101
▁100	-9.18168
▁예전에	-9.18361
▁편집	-9.18363
▁이름	-9.1844
▁슬픈	-9.18453
견	-9.18556
▁두번	-9.18603
염	-9.18631
다면	-9.18637
▁지금까지	-9.18676
▁깨	-9.18803
▁소설	-9.18935
▁대단	-9.18993
▁어디	-9.19005
▁낮은	-9.19047
▁따뜻한	-9.19089
▁부분	-9.19135
▁그때	-9.19168
재미있	-9.19476
▁낫다	-9.19502
▁가는	-9.1961
특	-9.19691
겠	-9.19878
하던	-9.19953
성이	-9.20148
튼	-9.20157
혹	-9.20166
▁하다	-9.20195
분들	-9.20215
나라	-9.20268
▁모르고	-9.20292
▁보는데	-9.20336
보다는	-9.20428
▁아버지	-9.20444
▁쓴	-9.20543
▁원래	-9.20567
것같다	-9.20617
▁이것도	-9.20622
▁80	-9.20647
걸까	-9.20679
▁봤네요	-9.20702
▁돈주고	-9.20721
해지는	-9.20921
▁실화	-9.20965
▁숨	-9.21022
▁이미	-9.21045
▁존재	-9.21045
이게	-9.21146
▁팬	-9.21187
▁첫	-9.21236
대박	-9.21276
▁감독은	-9.21294
봐서	-9.21303
▁찾	-9.21311
라이	-9.21331
▁인물	-9.2134
이냐	-9.21402
▁없네	-9.2142
▁윤	-9.21487
엇	-9.21553
▁ᄍᄍ	-9.21648
▁댓글	-9.21686
▁사랑을	-9.21709
-_-	-9.21776
올	-9.2178
충	-9.218
▁흠	-9.21834
▁물론	-9.21971
만한	-9.21972
▁재미없어	-9.22045
▁아이들	-9.22053
거리	-9.22083
▁괴	-9.22148
념	-9.22241
▁사람들은	-9.22473
보다가	-9.22616
▁평점은	-9.2267
:	-9.22855
청	-9.22863
스럽다	-9.22883
▁모르는	-9.2291
▁힘든	-9.22961
봐라	-9.22983
▁복수	-9.23024
▁설명	-9.2308
▁자꾸	-9.23096
▁설	-9.23133
▁역사	-9.23146
▁있음	-9.233
만들	-9.23311
▁죽음	-9.23319
▁싸	-9.23387
나서	-9.2347
▁결혼	-9.23474
▁없을	-9.23557
시리즈	-9.23656
▁완벽한	-9.23731
n	-9.2375
마다	-9.23764
들과	-9.23781
▁초반	-9.23849
명작	-9.2388
▁생각해	-9.23892
▁계	-9.23902
아서	-9.23916
▁전형적인	-9.23982
년도	-9.24084
음악	-9.24137
▁그래픽	-9.242
보는데	-9.24224
풍	-9.24241
료	-9.24249
아이	-9.24349
▁헐	-9.24381
▁저질	-9.24398
▁합니다	-9.244
▁짜	-9.24411
▁놀	-9.24421
▁바보	-9.24486
혀	-9.24494
▁귀신	-9.2456
몰	-9.24565
▁미화	-9.2465
그래도	-9.24716
▁흥미	-9.24749
▁까	-9.24955
▁감상	-9.24964
▁그게	-9.24984
▁느낄	-9.25026
▁늘	-9.25048
▁아빠	-9.25068
▁재밌어	-9.25137
▁데	-9.25239
▁괜히	-9.25283
▁영화보다	-9.2553
▁만족	-9.25579
▁만나	-9.25618
이에요	-9.25638
▁예고편	-9.25665
▁반전이	-9.25714
▁여성	-9.25817
▁느끼게	-9.25899
▁오히려	-9.26093
앗	-9.26193
주인공	-9.26236
함을	-9.2624
▁상상	-9.26383
▁목소리	-9.26393
l	-9.26396
년에	-9.26405
▁연출이	-9.26466
▁병맛	-9.26481
▁있다는	-9.26517
▁나라	-9.26607
▁부족한	-9.26656
▁웃긴	-9.2677
▁이정도	-9.2683
을듯	-9.26897
▁없네요	-9.26955
▁이리	-9.26974
맞	-9.27027
▁알았다	-9.27089
▁억지로	-9.27181
점짜리	-9.27227
▁무서운	-9.27229
▁뭔지	-9.27272
찬	-9.27325
~~~~	-9.27336
00	-9.27392
▁꼬	-9.27464
본다	-9.2752
하는거	-9.27617
▁만들지	-9.27842
▁영화라	-9.27854
▁알게	-9.27858
▁집	-9.28057
▁좋음	-9.28115
▁일본영화	-9.28127
▁SF	-9.28172
하여	-9.28174
탈	-9.28186
▁방	-9.28267
▁벗	-9.28269
▁우연히	-9.28281
는걸	-9.2839
▁완성도	-9.28458
▁인정	-9.28589
그런	-9.28614
갑	-9.28639
▁귀	-9.28673
윤	-9.28676
▁이야기를	-9.28807
하세요	-9.28825
겠지만	-9.28835
많이	-9.28872
▁인간의	-9.2897
▁별루	-9.29017
▁어린	-9.29061
에요	-9.2911
▁연출력	-9.29158
▁현재	-9.29189
▁권	-9.29231
▁믿고	-9.29278
▁좋았어요	-9.29307
▁평점에	-9.2931
리가	-9.29341
기가	-9.2942
▁대한민국	-9.29463
▁기대하고	-9.29481
일까	-9.29515
졌다	-9.29543
f	-9.2958
맛	-9.2958
▁어색	-9.29584
▁돈이	-9.29606
십	-9.29634
만으로도	-9.2964
▁신기	-9.29734
지않	-9.29804
▁대작	-9.29897
하긴	-9.29928
짝	-9.2996
▁이상한	-9.29962
▁스타일	-9.30033
▁진실	-9.30102
▁금	-9.30326
한번	-9.30373
▁재미있	-9.30386
놓은	-9.30387
▁진행	-9.30421
▁아무것도	-9.30691
▁비슷한	-9.30692
▁리	-9.30712
지고	-9.30746
징	-9.30906
폐	-9.30908
▁세상	-9.30957
영화다	-9.31203
모르	-9.31312
▁문	-9.31378
강추	-9.315
함이	-9.31521
좋다	-9.31549
도없고	-9.31565
▁휴	-9.31567
▁킬링타임용	-9.31663
▁개그	-9.31679
인거	-9.31715
▁온	-9.31733
▁프랑스	-9.31868
▁작품성	-9.31871
^	-9.31977
속에	-9.32058
▁배우가	-9.32119
말이	-9.32123
팬	-9.32313
▁형	-9.32322
▁액션도	-9.32381
한데	-9.32416
▁처음으로	-9.32437
▁서로	-9.32564
전에	-9.32625
▁듯한	-9.32735
렌	-9.32757
딱	-9.32872
▁괜찮	-9.32881
존	-9.3291
▁재미있고	-9.32944
▁특유의	-9.32965
▁떠	-9.33086
웠	-9.33135
▁ost	-9.33169
자가	-9.33203
E	-9.33218
에겐	-9.33235
▁관계	-9.33257
▁수가	-9.33258
변	-9.33259
▁흐	-9.33283
ᄉ	-9.33285
▁성장	-9.33362
▁인상	-9.33404
줘	-9.33493
▁앞으로	-9.33603
▁화이팅	-9.33611
▁않았	-9.33713
▁여운	-9.33747
▁알았는데	-9.33779
▁으	-9.33832
써	-9.33939
성을	-9.33941
▁않을	-9.33956
▁천재	-9.33995
▁낮	-9.34036
▁처	-9.34043
▁아이들이	-9.34056
났다	-9.34178
재밋	-9.34204
▁이후	-9.34243
▁코메디	-9.34251
................	-9.3435
▁바람	-9.34366
드는	-9.3437
봐야	-9.34511
▁지나	-9.34537
먼	-9.34543
▁질질	-9.34551
▁절	-9.34555
▁것이다	-9.34563
▁지루하지	-9.34592
지루	-9.34604
이면	-9.3461
▁흥미진진	-9.34631
▁모습이	-9.34669
▁대단하다	-9.34733
가서	-9.34764
주세요	-9.34825
▁전작	-9.3486
역시	-9.35003
▁트	-9.35013
▁이런거	-9.35032
▁이런걸	-9.35042
▁졸라	-9.35045
▁이러	-9.35054
▁청춘	-9.35075
킹	-9.35081
▁완벽	-9.35209
립	-9.35215
▁말고	-9.35231
졌	-9.35274
였던	-9.35277
▁지금도	-9.35307
▁디	-9.3532
▁그래	-9.35329
▁마무리	-9.35357
씩	-9.35442
▁해도	-9.35642
으며	-9.35667
어도	-9.35775
결말	-9.35804
했을	-9.35814
▁감사	-9.35824
▁이번	-9.35917
▁유치하고	-9.35946
재미없	-9.36016
▁않았다	-9.36086
▁어렸을때	-9.36161
▁왜이리	-9.36162
패	-9.36257
▁교훈	-9.36322
▁담	-9.36341
▁굳	-9.36346
무슨	-9.36406
▁비추	-9.36571
▁만점	-9.36614
▁되어	-9.36726
▁액션영화	-9.36769
▁멋있	-9.36805
▁보여	-9.36984
▁재미없고	-9.3699
보면서	-9.37232
책	-9.37239
▁만들었다	-9.37301
▁지난	-9.3739
▁감동적이	-9.37508
▁맞는	-9.37577
▁M	-9.37585
▁둘	-9.37819
웃음	-9.3785
▁확	-9.3789
▁실제	-9.37918
▁프로	-9.37924
▁시청률	-9.37939
▁명작이다	-9.37947
&	-9.37947
반전	-9.38044
페	-9.38072
만든	-9.38173
▁이것	-9.38202
답	-9.38423
▁않음	-9.385
▁노출	-9.38507
것이다	-9.3854
▁장면은	-9.38687
▁작품이	-9.38707
▁유머	-9.38722
▁병	-9.38731
▁시대	-9.38794
억	-9.38921
가족	-9.38943
▁속편	-9.38996
추천	-9.39037
받	-9.3905
▁아쉽	-9.39126
방송	-9.39308
▁ᄒᄒᄒ	-9.39369
▁또한	-9.39388
▁화려한	-9.39411
▁본다	-9.39482
인이	-9.39761
▁아니지만	-9.39776
▁알았	-9.39781
▁광	-9.39804
애니	-9.39809
아깝다	-9.39845
▁최악이다	-9.3989
▁그렇고	-9.39902
힌	-9.39902
▁귀여운	-9.39919
▁겁나	-9.40095
▁사랑이	-9.40097
▁식	-9.40165
싸	-9.40274
▁관람	-9.40335
▁알아	-9.40364
▁신선	-9.40382
센	-9.40388
아닌	-9.40489
▁시간낭비	-9.40527
▁진부한	-9.40578
▁몰	-9.40666
▁게임	-9.40688
▁남주	-9.40699
오는	-9.40716
는것	-9.40731
럽	-9.40828
▁아닐까	-9.40843
점준다	-9.40856
으면서	-9.40877
하자	-9.40924
▁사건	-9.41014
르는	-9.4105
▁저도	-9.41068
굿	-9.4125
였습니다	-9.41314
▁먹먹	-9.41319
▁분명	-9.4142
▁좋았습니다	-9.41438
▁재밌었어요	-9.41473
▁내인생	-9.41481
것은	-9.41511
▁떠나	-9.41609
면서도	-9.4163
▁왠지	-9.41662
하는게	-9.41686
▁C	-9.41735
독	-9.41739
분이	-9.418
량	-9.4187
시켜	-9.41885
셔	-9.41935
▁어찌	-9.41939
려서	-9.42075
많	-9.42146
있게	-9.42236
▁좋았고	-9.4225
▁골	-9.42257
▁짜증나	-9.42335
▁전체적으로	-9.42423
▁행동	-9.4243
▁복	-9.42433
네여	-9.42533
작가	-9.42575
▁이어	-9.42598
랄	-9.42875
한영화	-9.42876
모습	-9.42952
▁하면	-9.42983
▁안보	-9.43042
▁자유	-9.43171
했으면	-9.43273
이렇게	-9.43275
탕	-9.43397
▁마음을	-9.434
▁성인	-9.43422
▁경찰	-9.4345
꼭	-9.43472
▁보이는	-9.43495
▁보여준	-9.43609
▁심리	-9.43619
▁나만	-9.43658
▁군대	-9.43683
;;;;	-9.43703
사람이	-9.43796
▁나쁜	-9.43857
▁생각한다	-9.43909
@	-9.43917
풀	-9.43991
족	-9.43995
▁없었	-9.44024
▁티	-9.44105
ᅲᅲᅲ	-9.44132
▁미래	-9.44164
▁잘봤습니다	-9.44186
령	-9.44271
▁그런데	-9.44315
▁느끼	-9.44422
▁마치	-9.44436
▁눈이	-9.44442
▁삶을	-9.44458
▁무엇보다	-9.44488
▁영화였습니다	-9.4451
실망	-9.44563
▁허접한	-9.44587
▁먼저	-9.44598
▁같습니다	-9.44613
봉	-9.44631
▁스토리에	-9.44664
되지	-9.44712
▁목	-9.44773
스타	-9.44937
▁키	-9.4495
얼	-9.44988
▁성공	-9.45045
▁상상력	-9.45111
려는	-9.45114
에서는	-9.45122
▁살인	-9.45139
%	-9.45161
▁보고나서	-9.45173
▁지루하	-9.45204
▁극장	-9.45207
▁독	-9.45252
▁받	-9.45254
와서	-9.45299
▁중에	-9.45348
줘야	-9.45371
▁대충	-9.45423
▁너무나도	-9.4548
▁아들	-9.45546
황	-9.45649
▁어이없	-9.4577
버렸다	-9.45856
▁범죄	-9.4589
앙	-9.45988
▁깊이	-9.46011
▁그녀	-9.46175
▁일상	-9.46176
▁맥	-9.46286
▁소재는	-9.46412
시는	-9.46451
친구	-9.46474
엄	-9.46631
마음	-9.46656
▁지금봐도	-9.46657
특히	-9.46676
▁주인공들	-9.46679
▁좀비	-9.46685
▁한편	-9.46719
▁못하고	-9.46909
▁로맨틱	-9.47059
떡	-9.47066
▁깊은	-9.47066
인간	-9.47266
▁이젠	-9.47278
겠네	-9.47441
▁싫어	-9.4745
닥	-9.47454
▁확실히	-9.47599
▁투	-9.47613
▁나에게	-9.47677
졸	-9.4772
낮	-9.47785
거같다	-9.47796
▁드라마를	-9.47856
▁상영	-9.47892
▁다소	-9.47915
▁자신의	-9.47979
시키	-9.4801
었지만	-9.48066
▁가치	-9.48115
있어	-9.48185
▁영화에서	-9.48243
같	-9.48276
▁어이없는	-9.48359
재밌게	-9.48363
버리	-9.48462
었습니다	-9.48483
▁터	-9.48484
▁했	-9.48525
▁영화중에	-9.48591
가지	-9.48638
▁리얼	-9.48687
▁카메라	-9.48797
최	-9.4887
들아	-9.48905
▁읽	-9.48922
▁아오	-9.4898
없어	-9.48982
▁급	-9.49065
▁액션이	-9.49101
▁해준	-9.49119
득	-9.49131
--	-9.49164
▁자신	-9.49181
ᅲᅲᅲᅲ	-9.49186
▁어색한	-9.49209
▁좋았는데	-9.49283
이제	-9.49324
야지	-9.49332
▁있었던	-9.49336
▁매력적인	-9.49408
송	-9.49409
걸로	-9.49433
=	-9.49502
▁하는데	-9.49513
그러	-9.49659
▁눈을	-9.49805
▁세상에	-9.49838
▁좋았음	-9.49849
▁표	-9.49866
▁모습을	-9.49967
▁영웅	-9.4998
거임	-9.50002
준다	-9.50003
손	-9.50024
S	-9.50025
깨	-9.50035
던가	-9.50059
링	-9.50105
▁낭비	-9.50195
소재	-9.50265
▁같네요	-9.50285
▁태	-9.50286
▁사이	-9.503
뿌	-9.50301
▁빼	-9.50352
▁입니다	-9.50368
▁그런가	-9.50397
밀	-9.50473
▁끝내	-9.50484
▁왜이렇게	-9.50488
▁이영화가	-9.50516
코미디	-9.50593
더군요	-9.50594
▁평론가	-9.50642
최고의	-9.50728
▁함	-9.50742
▁독립영화	-9.50748
필	-9.50788
▁이야기가	-9.50798
x	-9.50837
시간이	-9.50889
휴	-9.51046
▁여자가	-9.51093
▁여자들	-9.51096
▁잘만든	-9.51102
▁황	-9.51208
나고	-9.51209
수록	-9.5121
▁....	-9.51248
보이	-9.51251
▁수준이	-9.51324
벨	-9.51402
▁프로그램	-9.51407
▁메시지	-9.51407
▁유쾌한	-9.51432
▁빠져	-9.5145
▁감사합니다	-9.51539
리스	-9.51553
▁이런게	-9.51596
▁범인	-9.51612
????	-9.51639
보세요	-9.51647
스런	-9.51649
▁고민	-9.51667
한건	-9.5167
▁교	-9.51677
▁연애	-9.51715
T	-9.51729
▁취향	-9.51761
▁촬영	-9.51775
일뿐	-9.51897
▁그랬	-9.51905
▁찍	-9.51961
눈물	-9.51976
▁부분이	-9.52024
빨	-9.5207
꼬	-9.52222
▁순수한	-9.52364
▁스케일	-9.52381
~^^	-9.52429
드라	-9.52453
던지	-9.52485
▁동화	-9.5253
▁느껴지는	-9.5255
▁아놔	-9.52616
코드	-9.52725
ᄀ	-9.52732
▁훨	-9.52843
20	-9.52873
고싶다	-9.52894
▁A	-9.52978
▁리메이크	-9.53091
▁단순	-9.53178
▁매력이	-9.53236
▁훌륭	-9.53308
▁이쁘	-9.53327
했는지	-9.53356
▁ᄉᄇ	-9.53358
곤	-9.53366
▁답	-9.53405
갔	-9.53526
하라	-9.53552
▁팔	-9.53563
었으면	-9.53596
▁찍은	-9.53688
▁19	-9.53709
▁기분이	-9.5378
됬	-9.53801
▁저예산	-9.53839
되서	-9.53903
▁내용을	-9.53918
▁딴	-9.53989
▁역시나	-9.54033
하시	-9.54039
딸	-9.54057
▁느	-9.54122
▁갑	-9.54206
▁별로다	-9.54238
▁감탄	-9.54261
▁예전	-9.54267
▁OST	-9.54304
만으로	-9.54309
▁스토리와	-9.54352
▁역대	-9.54365
▁떨어지는	-9.54382
▁해주는	-9.54401
이며	-9.54462
▁15	-9.5448
▁아름답다	-9.54521
▁끌	-9.54568
쿠	-9.54576
▁-_-	-9.54627
더만	-9.54639
끔	-9.5466
▁중간중간	-9.5475
나온	-9.54756
▁현대	-9.54807
▁여전히	-9.54812
▁처음이다	-9.54892
주고	-9.549
▁ᄏᄏᄏᄏᄏ	-9.55019
▁됐	-9.5508
▁독특한	-9.55211
항	-9.55356
▁벌	-9.5536
한듯	-9.55369
▁니	-9.55416
으론	-9.55426
▁메세지	-9.55437
▁아니면	-9.55498
하려는	-9.55564
▁현실성	-9.55583
▁나를	-9.55583
많은	-9.55704
시킨	-9.55713
▁해야	-9.55784
쇼	-9.55817
시절	-9.55823
▁중간	-9.55838
▁든다	-9.55864
▁유쾌	-9.55888
텐데	-9.55952
▁아저씨	-9.55959
을텐데	-9.55959
▁마라	-9.56053
에서도	-9.56084
▁했지만	-9.56156
내요	-9.5616
만화	-9.56253
▁맨	-9.56286
▁보지마세요	-9.56309
▁돌려	-9.56331
▁아닌데	-9.56341
▁기본	-9.56366
▁전달	-9.56367
찌	-9.56374
▁좋을	-9.5644
▁젤	-9.56448
▁초반에	-9.56454
w	-9.56478
▁소재를	-9.56483
ᄂ	-9.56502
버리고	-9.56506
ᄆ	-9.56518
▁섹시	-9.5652
▁<	-9.56544
▁봤었는데	-9.56567
▁낚	-9.56607
▁제작진	-9.56693
▁찍어	-9.5674
▁나오고	-9.56749
돼	-9.56754
▁역할	-9.56871
▁연기력이	-9.56872
▁답답	-9.56931
▁평범한	-9.56991
*	-9.57099
▁사람을	-9.57136
▁분들	-9.57241
감독이	-9.57262
해주는	-9.5731
▁시선	-9.57378
▁볼때마다	-9.57491
▁정치	-9.57493
▁재미있음	-9.57571
▁신선한	-9.57601
응	-9.57631
▁슬프다	-9.57633
▁그림	-9.57651
▁슬픔	-9.57656
닝	-9.57691
▁있다면	-9.57691
(?)	-9.57693
▁리뷰	-9.57696
됐	-9.57831
▁안나오	-9.57836
▁전편	-9.57852
인것	-9.57867
▁애들이	-9.58007
▁드는	-9.58027
▁아깝	-9.5806
급영화	-9.58144
▁사극	-9.58166
▁보고싶다	-9.58262
몬	-9.58282
▁저렇게	-9.5829
까진	-9.58308
▁아름답고	-9.58526
새끼	-9.5857
▁귀엽고	-9.58698
든다	-9.58704
▁흘러	-9.58813
▁드라마가	-9.58816
엿	-9.58882
▁예쁜	-9.58886
▁호러	-9.58904
▁그렇다	-9.58963
▁이유가	-9.5903
▁각	-9.59116
▁가진	-9.5928
▁평생	-9.59321
괴	-9.59329
▁넣	-9.59331
▁나중에	-9.59332
▁꼴	-9.59339
▁티비	-9.59378
껏	-9.5938
▁개인	-9.59391
▁라는	-9.59394
유치	-9.59418
▁표정	-9.59457
취	-9.59505
▁그들의	-9.59521
니깐	-9.59571
짜리	-9.59631
▁괴물	-9.59744
▁죄	-9.59889
▁전에	-9.59925
엉	-9.5997
로서	-9.59985
▁희망	-9.60011
틴	-9.60032
▁액션은	-9.60065
▁살짝	-9.60107
▁악역	-9.60123
▁굳이	-9.6015
▁재밌었는데	-9.60233
▁감동적이고	-9.60237
ᄃ	-9.60306
▁아는	-9.6032
▁끝나고	-9.60321
ᄏᄏᄏᄏᄏᄏᄏᄏᄏᄏᄏᄏᄏᄏᄏᄏ	-9.60334
▁등장	-9.60338
▁뒷	-9.60359
▁하게	-9.60404
말고	-9.60523
▁우울	-9.60524
영화중	-9.60555
▁안되고	-9.60636
릭	-9.60656
프로	-9.6067
▁희생	-9.60692
▁표절	-9.60707
팔	-9.60769
▁통해	-9.60788
둘	-9.60788
//	-9.60793
▁사랑하는	-9.60797
▁법	-9.60819
▁고전	-9.60847
감이	-9.6087
빵	-9.60886
ᄍᄍ	-9.60902
▁않아	-9.60944
시키는	-9.6095
▁얼	-9.61098
▁참신	-9.61113
▁나가	-9.61122
없네	-9.61134
재미없다	-9.6124
▁바라	-9.6127
▁후반	-9.61319
제목	-9.61341
▁어릴적	-9.6135
▁소름	-9.61394
▁근	-9.61396
만들어	-9.61412
봐요	-9.61425
마저	-9.61426
쓴	-9.61451
▁취	-9.61509
▁웃겨	-9.61549
▁싶어	-9.61723
▁보는게	-9.61886
▁보기엔	-9.61926
▁과연	-9.61968
A	-9.6202
▁기대를	-9.62025
▁느껴	-9.6206
▁끝난	-9.62108
▁의심	-9.62117
▁용서	-9.62117
줌	-9.62165
▁싫다	-9.6229
▁남는다	-9.62292
▁몰입이	-9.62324
▁능력	-9.62367
낼	-9.62526
▁압권	-9.62526
▁종교	-9.62557
▁클	-9.62638
골	-9.62658
쳤	-9.62666
▁포장	-9.62669
지마라	-9.62684
암	-9.62685
북	-9.62697
▁연기에	-9.62701
C	-9.62708
나올	-9.6278
왔	-9.62794
▁스토리를	-9.62846
인생	-9.62875
▁요소	-9.62909
▁게이	-9.62918
동안	-9.63059
▁캐	-9.63089
▁안됨	-9.63128
혼	-9.63167
▁무섭	-9.63249
▁무지	-9.6328
▁추천합니다	-9.63317
▁그럭저럭	-9.63342
▁아닌듯	-9.63355
번째	-9.63417
▁연기와	-9.63432
▁재밌었	-9.63439
▁몰입감	-9.63454
▁우정	-9.63537
씨가	-9.6362
▁나서	-9.63649
좋아요	-9.63722
▁전기세가	-9.63778
더라구요	-9.63835
▁짜증나는	-9.63852
▁먼	-9.6391
▁cg	-9.63927
▁황당	-9.63934
진심	-9.63981
뜻	-9.63983
하는지	-9.63994
것을	-9.64014
▁음악이	-9.64042
▁자연	-9.64054
▁그의	-9.64065
기엔	-9.64073
람	-9.6408
었고	-9.64126
▁생각합니다	-9.64163
▁s	-9.64187
▁잼있게	-9.64268
드리	-9.64326
▁짠	-9.64339
▁만들어진	-9.64344
하려고	-9.64354
머리	-9.64365
▁이연걸	-9.64402
▁허무	-9.64442
할듯	-9.64453
하다니	-9.6457
▁안하고	-9.64578
▁처음엔	-9.64634
▁했던	-9.64677
▁말로	-9.64689
▁알바들	-9.64782
▁현실을	-9.6484
▁폭력	-9.649
▁열심히	-9.64902
▁여러	-9.64909
협	-9.64982
▁짓	-9.64995
잉	-9.65021
▁홍콩	-9.65063
▁나왔으면	-9.65091
▁난다	-9.65114
▁밀	-9.65149
▁이건뭐	-9.65193
하면서도	-9.6523
B	-9.65236
것만	-9.65239
첨	-9.65248
▁사는	-9.65275
죄	-9.65289
총	-9.65296
▁다행	-9.65335
▁재미없네	-9.65359
▁더이상	-9.65455
▁느끼는	-9.65526
▁포기	-9.65532
▁공감이	-9.65543
▁접	-9.65697
▁긴장	-9.65703
▁페	-9.65716
▁국	-9.65765
▁재밌습니다	-9.65863
▁묘사	-9.65867
영환	-9.65915
▁멀	-9.65933
▁빛	-9.6597
뒤	-9.66021
▁티비에서	-9.66081
ᄒᄒᄒ	-9.66107
▁개판	-9.66155
오빠	-9.66259
▁많다	-9.66266
▁뮤지컬	-9.66273
댄	-9.66312
활	-9.66332
▁아까워	-9.66442
▁죽어	-9.6647
다른	-9.66517
▁있지	-9.66546
▁같아	-9.66555
an	-9.66558
▁T	-9.66564
▁봤다가	-9.66621
잼있	-9.66639
▁달리	-9.66646
▁되었다	-9.66669
표현	-9.66687
▁칼	-9.66695
▁시원	-9.66727
좋았	-9.66744
안되	-9.6676
▁보시길	-9.66792
▁봤으면	-9.66957
▁같음	-9.66972
▁민	-9.66978
▁밑에	-9.6698
▁분노	-9.67047
▁영화이다	-9.67063
▁낫	-9.67064
▁주인공의	-9.67135
▁진심으로	-9.67146
▁용	-9.67172
▁설레	-9.67194
."	-9.67289
▁40	-9.67295
▁+	-9.67306
먹고	-9.67373
▁중요한	-9.67374
안에	-9.6743
맞추	-9.67474
잔잔	-9.67692
▁I	-9.67753
▁볼거리	-9.67767
지마	-9.67768
▁과정	-9.67891
,,,,	-9.67938
영상	-9.6796
킬	-9.67982
욱	-9.68091
속에서	-9.68137
내는	-9.68176
하겠	-9.68203
재밌어요	-9.68227
빡	-9.68231
▁몸매	-9.68268
▁빈	-9.68279
▁재미를	-9.68293
▁덜	-9.6838
▁인기	-9.68553
▁고생	-9.68567
▁볼만함	-9.68599
▁소녀	-9.68625
노잼	-9.68633
클	-9.68649
▁다만	-9.68651
▁자막	-9.68696
는건지	-9.68704
랜	-9.6874
▁사랑과	-9.68829
▁크게	-9.68856
or	-9.68866
힐	-9.68917
▁만든다	-9.68956
▁사랑에	-9.68968
▁이유는	-9.68983
현실	-9.6901
아님	-9.6903
▁이정도면	-9.69123
▁생각나는	-9.69145
er	-9.69244
점주는	-9.69272
▁올리	-9.69285
년전에	-9.69391
▁만드	-9.69421
▁쓰래기	-9.69442
▁무섭다	-9.69601
▁영화보고	-9.69631
▁되게	-9.69634
▁그다지	-9.69658
▁퀄리티	-9.69672
▁드	-9.69714
▁흐름	-9.69755
사가	-9.70102
엄마	-9.70103
▁높다	-9.70195
▁철	-9.70207
▁지루할	-9.70232
▁쉽게	-9.70255
얘기	-9.70267
▁한계	-9.70282
지않는	-9.70296
지않은	-9.70312
전쟁	-9.70354
▁필요없다	-9.70356
하지도	-9.70369
하는것	-9.70443
한게	-9.70498
▁긴	-9.70503
▁북한	-9.7051
▁풀어	-9.70523
▁다큐멘터리	-9.70555
웠다	-9.70628
다운	-9.7063
▁춤	-9.70658
▁스타	-9.70677
케이	-9.70693
일이	-9.70743
▁최근	-9.70775
▁추억의	-9.70806
▁제목이	-9.70811
인의	-9.70824
▁오버	-9.70872
▁관심	-9.70887
롱	-9.70887
ᄅ	-9.70915
▁없지만	-9.70935
▁볼수록	-9.7102
▁좋았던	-9.71118
▁삶의	-9.71167
▁유치함	-9.71177
▁필요없는	-9.71184
▁영화지만	-9.71211
▁어제	-9.71317
▁후반부	-9.71374
▁지루해서	-9.71435
▁삶	-9.71443
▁어쩔	-9.71511
▁언제나	-9.71541
▁디즈니	-9.71594
▁씨	-9.71716
▁친	-9.71797
▁그려	-9.71806
▁재미있네요	-9.7187
▁열정	-9.71886
▁S	-9.71928
▁판	-9.71931
▁아쉬움	-9.7195
랬	-9.72038
▁몇번을	-9.72058
▁해피엔딩	-9.72058
▁감동과	-9.72075
▁그걸	-9.72089
캐릭터	-9.7209
멋	-9.72098
▁글쎄	-9.72117
였어요	-9.72127
나와	-9.72133
▁남을	-9.72174
▁정서	-9.72186
▁젊은	-9.72207
▁재밌네	-9.72228
렉	-9.72269
▁가볍게	-9.72274
▁비주얼	-9.72274
▁싸구려	-9.72274
▁힐링	-9.72274
▁명작이	-9.72286
▁회	-9.72294
▁드라마는	-9.72314
▁불편	-9.72384
▁좋습니다	-9.72408
막장	-9.72444
▁보고싶	-9.72477
있는데	-9.72482
▁가지	-9.72527
킨	-9.72537
▁봐야할	-9.72553
놀	-9.72568
▁소재가	-9.72623
했나	-9.72656
시간에	-9.72685
로써	-9.72715
▁짧	-9.72752
였지만	-9.7276
▁엉성한	-9.72788
재밌다	-9.72919
탁	-9.72922
V	-9.72945
▁남아	-9.7299
왔다	-9.73024
▁동생	-9.73029
내용이	-9.73077
▁비극	-9.73117
▁폭	-9.73189
▁싫	-9.73235
▁붙	-9.73343
▁배우의	-9.73375
▁재밋게	-9.73468
▁보고싶은	-9.73593
▁샤	-9.7364
ᅡ	-9.73648
▁눈빛	-9.73666
▁보이	-9.73699
가지고	-9.73727
▁12	-9.73824
▁만큼	-9.73915
▁못했다	-9.73931
▁똑같	-9.73945
▁소재로	-9.73974
▁돌아가	-9.74053
▁아깝지	-9.74069
▁몰라도	-9.74166
자들	-9.74231
접	-9.74257
롭	-9.74283
ᄃᄃ	-9.74293
대사	-9.74301
▁놀라	-9.74309
N	-9.74329
▁짱짱	-9.74331
팍	-9.74343
▁청	-9.74346
▁ᅮ	-9.74483
▁있나	-9.74624
▁느낄수	-9.7468
ᄏᄏᄏᄏᄏ	-9.74703
▁누	-9.74763
▁70	-9.7477
애들	-9.7485
했어	-9.74858
함과	-9.74865
확	-9.74987
j	-9.75042
폰	-9.75042
▁섹스	-9.75046
시고	-9.75157
▁몰랐	-9.75199
▁잔인한	-9.75314
용으로	-9.75358
▁임	-9.75375
▁맘	-9.75382
세기	-9.75402
▁킬링타임	-9.7542
▁홍	-9.75535
▁되지	-9.75552
이해	-9.75585
중의	-9.7564
▁자극	-9.75644
▁국민	-9.75692
줄이야	-9.75718
▁연예인	-9.75747
나게	-9.75779
▁우리가	-9.76044
했다는	-9.76062
▁광고	-9.76068
봣는데	-9.76091
▁슬프고	-9.76277
▁슬프	-9.76308
▁늘어	-9.76375
▁동물	-9.76395
춘	-9.76416
▁헐리우드	-9.76455
끈	-9.7646
▁좋아서	-9.76489
▁마세요	-9.76543
▁다시한번	-9.76587
v	-9.76595
일본	-9.76738
▁미치	-9.76738
▁다르	-9.7682
▁그럼	-9.76823
▁만들고	-9.76897
▁끝나는	-9.76947
한다는	-9.76978
끌	-9.76995
자리	-9.76996
웅	-9.771
스릴러	-9.77238
▁가끔	-9.77248
▁악당	-9.77268
▁없나	-9.77274
져서	-9.77337
▁반전도	-9.77382
▁브	-9.77413
▁점수를	-9.7744
관계	-9.77455
▁홍보	-9.77475
▁가서	-9.7751
▁ᄃᄃ	-9.77517
▁보았	-9.77519
나옴	-9.7758
사회	-9.77703
사이	-9.77718
▁이제야	-9.77777
▁찍었	-9.77798
폭	-9.77846
한다면	-9.77868
떠	-9.77869
스가	-9.77882
털	-9.77889
▁불구하고	-9.7789
▁찡	-9.77896
상을	-9.77927
▁문화	-9.77954
▁존경	-9.77978
▁사람의	-9.77994
▁지구	-9.78055
▁이쁜	-9.7807
▁불쌍	-9.78116
▁우주	-9.78193
▁않게	-9.78258
▁그린	-9.78358
▁멋지다	-9.78418
▁풍	-9.78425
▁발전	-9.78534
콜	-9.78601
▁뛰어난	-9.78644
▁방금	-9.78652
▁생애	-9.7868
웃기	-9.78703
좋고	-9.78714
▁사랑스러운	-9.78718
▁올해	-9.78762
했으나	-9.78821
그래	-9.78836
공포	-9.78862
명이	-9.78944
▁재밋다	-9.78953
▁틀	-9.78987
력이	-9.78987
▁아마	-9.79068
▁음악도	-9.79161
턴	-9.79235
홍	-9.7927
나와서	-9.79276
있음	-9.79294
온다	-9.79295
팅	-9.79336
▁어려운	-9.79344
▁끌어	-9.79345
▁에로	-9.79417
축	-9.7952
픈	-9.79523
▁잊혀지지	-9.79527
▁진정	-9.79553
▁있게	-9.79603
개봉	-9.7969
▁있습니다	-9.79699
▁채	-9.79785
▁실패	-9.79786
▁웃기고	-9.79844
▁식상	-9.79872
▁연출도	-9.79951
점준	-9.79958
알바	-9.79968
섭	-9.79977
▁싶었	-9.79986
▁인생을	-9.79991
기분	-9.80015
퇴	-9.80041
흑	-9.8005
려면	-9.80077
▁로그인	-9.80079
▁시사회	-9.8012
옥	-9.80122
▁영화냐	-9.80139
▁둘다	-9.80141
re	-9.80145
▁ᄋᄋ	-9.80206
착	-9.80215
땅	-9.80223
♥♥	-9.80287
▁낮아서	-9.80294
▁월	-9.80327
▁쫌	-9.80389
▁딱히	-9.80423
▁킬링타임용으로	-9.80432
빼고	-9.80441
▁영화관	-9.80526
▁산으로	-9.80548
빙	-9.80602
학생	-9.80659
▁커	-9.80709
▁유치하다	-9.80717
▁필	-9.80719
택	-9.80748
▁헤	-9.8075
홀	-9.80793
▁아름다움	-9.8082
]	-9.8082
▁무언가	-9.80821
헤	-9.80848
▁거지	-9.80854
▁드럽게	-9.80885
▁연결	-9.80885
▁할말	-9.80924
▁결과	-9.81
▁재밌었음	-9.81019
▁믿	-9.81046
▁모르겠	-9.81074
할까	-9.81168
하신	-9.81192
하던데	-9.8127
▁달라	-9.81273
▁볼만하다	-9.81347
▁귀엽	-9.81359
▁유명	-9.81374
올리	-9.81409
▁되었	-9.81453
▁순수	-9.81457
▁죄다	-9.81472
▁탈	-9.81546
▁베스트	-9.81611
▁생생	-9.81637
▁단연	-9.81704
▁평이	-9.81706
▁느와르	-9.81714
▁그것	-9.81719
▁많아	-9.81721
▁평범	-9.81754
자체가	-9.81775
on	-9.81778
답답	-9.81783
▁엉망	-9.81826
순간	-9.81842
▁반성	-9.81854
같음	-9.81967
한것	-9.81972
▁한국인	-9.81992
O	-9.82003
▁차이	-9.82008
▁어이가	-9.82033
▁들었	-9.82098
봣	-9.82115
웨	-9.82122
▁재미있었다	-9.82133
▁빌려	-9.82171
▁루	-9.82285
▁쵝오	-9.82318
▁바뀌	-9.82324
거라	-9.8233
우리	-9.8233
▁시간을	-9.82334
무비	-9.82342
중에서	-9.82347
▁어머니	-9.82352
▁봣는데	-9.82389
▁풀	-9.82414
▁고통	-9.82518
▁캐릭터들	-9.82533
에대한	-9.82572
▁조폭	-9.82642
세상	-9.82873
하구	-9.82908
▁눈물을	-9.82927
▁의도	-9.82965
엠	-9.83073
▁청소년	-9.83078
원작	-9.83109
연기가	-9.83144
▁결말은	-9.83192
▁나왔다	-9.83255
▁몰입해서	-9.83255
▁남겨	-9.83277
▁출연진	-9.8333
캐	-9.8334
▁네	-9.83351
쁘	-9.83375
▁좀더	-9.83402
았던	-9.83445
▁하루	-9.83472
▁어른	-9.83499
▁인간이	-9.83522
▁집에서	-9.83624
줬	-9.8363
▁d	-9.83732
▁연속	-9.83737
한다고	-9.83759
지않고	-9.83779
값	-9.83828
인가요	-9.8383
R	-9.83839
▁정말로	-9.83854
대는	-9.83872
▁핵	-9.84022
구성	-9.84035
엘	-9.8417
싱	-9.84184
▁해주	-9.8419
▁말을	-9.84209
평점이	-9.84225
▁검	-9.84253
▁채널	-9.84256
▁여기서	-9.84259
스터	-9.84263
▁힘들다	-9.84264
▁뜻	-9.84334
▁투자	-9.84341
▁하면서	-9.84384
인들	-9.84439
스타일	-9.84455
▁탄탄한	-9.84455
시다	-9.84462
▁좋았	-9.84471
▁옛날에	-9.84534
▁결말도	-9.8458
▁m	-9.84585
▁멍청한	-9.84608
컨	-9.84608
▁헐리웃	-9.84608
▁스스로	-9.84611
▁있어요	-9.84661
▁사기	-9.84807
▁아직까지	-9.84822
▁현실적인	-9.84825
▁당신	-9.8485
▁보았다	-9.84861
▁시걸	-9.84972
영화라고	-9.85012
짜증	-9.85045
▁재미없어요	-9.85063
연기도	-9.85088
내용도	-9.85128
▁뻔하고	-9.85131
되면	-9.85163
▁비슷	-9.85166
▁단순한	-9.8521
정신	-9.85221
지를	-9.85227
▁표현한	-9.85328
겟다	-9.85341
겁	-9.85367
▁견자단	-9.85383
먹는	-9.8539
▁인간들	-9.85392
▁흔한	-9.85402
▁찌	-9.85442
만드는	-9.85445
버리는	-9.85472
프리	-9.85475
늘	-9.85569
▁전문가	-9.85627
내고	-9.85659
▁떠나서	-9.8566
편보다	-9.85671
▁남녀	-9.85692
검	-9.85725
자는	-9.85763
뻐	-9.85766
으로써	-9.85774
▁질리지	-9.85807
▁안돼	-9.85878
▁빠	-9.85905
▁대화	-9.85915
▁괜찮았	-9.85963
▁꺼	-9.85977
감을	-9.86001
▁시대를	-9.86056
▁전체	-9.86068
▁나오면	-9.86111
텔	-9.86165
!!!!!	-9.86196
ing	-9.86217
▁끔	-9.86236
▁;;	-9.86237
▁영국	-9.86304
해주세요	-9.86372
▁슬	-9.86392
▁제작비	-9.8643
▁못한다	-9.86467
시작	-9.86505
▁무엇을	-9.86589
▁생각없이	-9.86604
▁보지마	-9.8663
▁200	-9.86631
▁미드	-9.86642
스의	-9.86669
▁놈	-9.86721
▁보니까	-9.86738
나온다	-9.86753
들만	-9.86818
노래	-9.86825
친다	-9.86877
▁나옴	-9.86915
스러움	-9.86934
▁죽는	-9.86941
▁벌써	-9.86965
▁느낌을	-9.86978
▁장면에서	-9.8699
▁죽을	-9.87023
▁매력적이	-9.8713
하는건	-9.87281
▁높아	-9.8734
잠	-9.87363
▁환	-9.87401
▁건지	-9.87407
▁끼	-9.87426
보는내내	-9.87468
▁느낀	-9.87472
▁지금은	-9.87473
▁이후로	-9.87522
냥	-9.87525
▁나오지	-9.87563
편의	-9.87606
▁조연	-9.8773
했네요	-9.87736
장면이	-9.87737
▁레전드	-9.87746
▁즐겁게	-9.8775
▁잔잔하고	-9.87755
▁명품	-9.87785
언니	-9.87785
▁단지	-9.87798
긴한데	-9.87811
▁와우	-9.87813
▁지켜	-9.8782
▁시각	-9.87828
▁좋았을	-9.87849
꾸	-9.87892
▁매력있	-9.879
11	-9.87908
▁작가가	-9.87965
▁모든게	-9.87967
▁야한	-9.88
▁섬	-9.88014
▁남자가	-9.88048
가슴	-9.88093
▁남편	-9.88104
▁무시	-9.88169
▁않지만	-9.8825
▁ᅲᅲᅲ	-9.88258
리를	-9.88287
▁말하는	-9.88302
혁	-9.88507
압	-9.88513
▁위대한	-9.88548
계속	-9.8855
▁기대안하고	-9.88574
▁발견	-9.88589
있어서	-9.88635
▁말할	-9.88648
▁주변	-9.88649
▁뻔	-9.88656
▁이해할	-9.88659
보자	-9.88665
▁같아서	-9.88713
▁배우들도	-9.88721
▁창	-9.88727
▁영어	-9.88783
▁누구나	-9.8892
예요	-9.88945
▁싶지	-9.88954
OOO	-9.88982
M	-9.89024
넣	-9.89026
▁어렸을	-9.89043
기위해	-9.8907
▁죽이	-9.89116
"""	-9.8918
흔	-9.89237
사는	-9.89246
기억	-9.89297
▁밥	-9.89324
▁재밌을	-9.89339
▁싶네요	-9.89341
떄	-9.89352
톱	-9.89352
혈	-9.89352
▁발로	-9.89356
영화의	-9.89423
▁끝이	-9.89432
놨	-9.89443
겁니다	-9.89454
▁되고	-9.8955
님의	-9.8956
▁50	-9.89561
▁받아	-9.89617
는것도	-9.89618
▁유쾌하고	-9.89654
이니	-9.89711
▁안보고	-9.89724
▁관객들	-9.89726
▁"""	-9.89744
만의	-9.89799
▁하네요	-9.89846
묘	-9.89859
차라리	-9.89878
▁누군가	-9.89907
▁봤을	-9.9001
▁유명한	-9.9005
▁이런영화가	-9.90124
`	-9.90165
▁안타깝다	-9.90181
이었	-9.90188
▁맨날	-9.90215
▁갈등	-9.90227
▁앞	-9.90272
▁독특	-9.90317
▁시도	-9.90362
▁못해	-9.9037
▁생각하는	-9.90409
갔다	-9.90508
▁국내	-9.90522
딩	-9.90584
▁김기덕	-9.90603
▁시트콤	-9.90663
사람은	-9.90668
▁한심	-9.90712
겹	-9.90719
그리	-9.90756
▁에휴	-9.9078
계의	-9.90792
ar	-9.90797
▁보인다	-9.90823
으려	-9.90825
따라	-9.90919
왔는데	-9.9095
▁이거보고	-9.90979
스러워	-9.91007
즘	-9.91013
영화로	-9.91039
▁눈에	-9.91093
▁환상	-9.91133
해진	-9.91135
▁쇼	-9.91154
▁반복	-9.91167
▁보길	-9.91171
.......	-9.9121
ᅲᅮ	-9.91221
님들	-9.9124
▁허세	-9.91272
▁아이돌	-9.9129
▁아나	-9.91313
▁영화에요	-9.91331
냈	-9.91337
수있는	-9.91354
▁부르	-9.91356
in	-9.91367
▁직	-9.91383
▁않나	-9.91417
▁줌	-9.91478
아요	-9.91479
▁하는지	-9.91493
▁출	-9.91509
▁운	-9.91555
▁한참	-9.91586
........	-9.91769
잤	-9.91789
▁못할	-9.91808
▁치밀	-9.91838
▁편견	-9.9185
▁공부	-9.91878
▁넘어	-9.91906
자의	-9.91947
으로서	-9.92005
▁인물들	-9.92036
▁진지	-9.92054
자체	-9.92109
▁생각하고	-9.92134
▁꾸	-9.92155
줘서	-9.92195
흐	-9.9222
▁개연성이	-9.92223
▁멋있다	-9.9227
▁내려	-9.92314
▁멋	-9.92321
씬은	-9.92324
▁모르겠고	-9.92378
슈	-9.92415
▁씬	-9.92434
봅니다	-9.92435
몽	-9.92435
쉽	-9.92463
▁망한	-9.92467
▁울고	-9.92496
▁있네요	-9.92502
와는	-9.9253
몰입	-9.92536
설정	-9.92583
▁어쩌	-9.92618
뛰	-9.92619
벽	-9.9262
▁허술	-9.92637
수도	-9.92639
▁찌질	-9.92719
▁c	-9.92754
▁죽여	-9.9278
▁옛	-9.92869
였고	-9.92903
해야지	-9.92909
▁잊지	-9.92968
있네	-9.9301
▁미모	-9.93074
▁행	-9.93092
▁쓸	-9.93109
▁떨어지	-9.93117
하려	-9.93124
냈다	-9.93125
들고	-9.93144
▁울었다	-9.93161
있었	-9.93167
I	-9.93295
밥	-9.93311
받는	-9.93324
찰	-9.93329
편을	-9.93342
▁보고나면	-9.93412
었어	-9.93444
있나	-9.93469
▁즐거운	-9.93485
례	-9.93485
▁멍청	-9.93492
▁w	-9.93543
돌아	-9.93567
▁코난	-9.93588
▁불쾌	-9.93619
지도않고	-9.93627
▁시시	-9.93634
▁있으면	-9.93677
▁최고입니다	-9.93678
았음	-9.93738
껄	-9.93793
▁돋	-9.93809
거면	-9.93872
▁송	-9.93943
▁진리	-9.93955
▁받았	-9.93975
▁부모	-9.93976
▁이기	-9.93999
▁빼고	-9.94024
▁그렇다고	-9.94065
▁한데	-9.94091
▁힘이	-9.94135
▁음악과	-9.94163
▁대부분	-9.94173
▁꿈을	-9.94177
형님	-9.94191
이였다	-9.94226
괜찮	-9.94238
을수	-9.94325
▁뭉클	-9.94332
▁의외로	-9.94351
▁따뜻해지는	-9.94358
끄러	-9.94385
▁달달	-9.94394
받고	-9.94396
▁의리	-9.94415
▁대사가	-9.94426
▁이쁘고	-9.94451
▁로봇	-9.94468
▁아줌마	-9.94501
▁당시에	-9.94546
▁착한	-9.94707
▁굿굿	-9.94715
▁에피소드	-9.94726
▁영화였어요	-9.94811
▁필요한	-9.94836
부작	-9.94853
리지	-9.94907
지말고	-9.94947
▁살고	-9.94971
학교	-9.95016
▁웃음이	-9.95018
점수	-9.95021
ᄌ	-9.95087
무섭	-9.95097
▁[	-9.95104
틈	-9.95145
끝나	-9.95164
ᅵ	-9.95187
탓	-9.95187
▁the	-9.95188
▁007	-9.95189
▁여행	-9.95218
▁재미있었어요	-9.95254
영화임	-9.95332
▁긴장감도	-9.95369
▁아쉽네요	-9.95425
▁잔	-9.95445
▁속에	-9.9548
▁우와	-9.95494
▁있어야	-9.9551
째	-9.95534
▁볼게	-9.95602
▁무비	-9.95619
▁빨	-9.95679
▁없는데	-9.95797
장난	-9.95853
▁덕분에	-9.95897
▁왜케	-9.9595
▁전투	-9.96036
▁엉성	-9.96043
▁초등학생	-9.96049
▁마이너스	-9.96049
▁봤더니	-9.96049
▁경험	-9.96062
했네	-9.96077
▁복잡	-9.96081
▁좋게	-9.96082
높	-9.96119
▁낳	-9.96125
▁이미지	-9.96141
식으로	-9.96221
▁혼	-9.96347
▁이쁘다	-9.96371
▁노답	-9.96385
▁자살	-9.96424
▁썩	-9.96452
▁끊	-9.96472
▁인생의	-9.96529
해진다	-9.96603
나가는	-9.96651
릿	-9.96688
▁신선하고	-9.96748
▁짝퉁	-9.96802
하시는	-9.9683
▁받을	-9.96847
▁작품을	-9.96887
▁어처구니	-9.96919
뮤	-9.96919
▁마이클	-9.96924
상황	-9.96963
▁최강	-9.97002
▁기술	-9.97004
▁결	-9.97013
▁조합	-9.9704
▁모르겠지만	-9.97066
▁학교에서	-9.97131
▁쩐다	-9.97214
▁지루했다	-9.97218
▁13	-9.97265
▁꽃	-9.97345
▁나쁘지	-9.97436
했을까	-9.97448
만큼은	-9.97463
▁일이	-9.97472
내내	-9.97484
▁좋지만	-9.97514
이런영화	-9.97529
짜증나	-9.97614
▁적당	-9.97614
▁시청자	-9.97637
▁작품이다	-9.97643
▁어렵	-9.97655
버릴	-9.97666
▁헤어	-9.97676
까지는	-9.9769
하다가	-9.97728
▁논	-9.97766
▁빼고는	-9.97783
▁흥미로운	-9.97796
▁더불어	-9.97799
문제	-9.97833
▁어휴	-9.97872
▁친구들	-9.97884
해준	-9.97898
▁슈퍼	-9.97904
집니다	-9.97951
▁제로	-9.97987
보게	-9.97997
▁없었던	-9.97999
▁박수를	-9.98048
▁본인	-9.98059
▁극치	-9.98077
▁착	-9.98105
하지마라	-9.98108
문화	-9.98139
▁미안	-9.98166
.........	-9.98174
했었는데	-9.98176
▁작은	-9.98264
▁살려	-9.98282
▁삶에	-9.98413
▁암튼	-9.9842
▁오바	-9.98438
▁손발이	-9.98596
요즘	-9.98641
쩔	-9.9867
칭	-9.9868
▁카리스마	-9.98681
▁더러운	-9.98682
▁기다리	-9.98687
샤	-9.98692
▁감정을	-9.98756
▁양심	-9.98803
▁외모	-9.98826
▁좋았지만	-9.98835
엇다	-9.98846
▁무서웠	-9.98903
▁죽은	-9.9892
님이	-9.98926
▁부터	-9.98968
느라	-9.98974
...........	-9.98976
▁이하	-9.98979
▁자식	-9.98998
▁부족하다	-9.99006
동생	-9.99034
만들었	-9.99056
간의	-9.99057
켜	-9.99089
였어	-9.99155
연기력	-9.99205
셈	-9.99314
씨의	-9.99336
하기엔	-9.99394
▁가능	-9.99442
▁썼	-9.99446
아니다	-9.9945
잡고	-9.99471
한국	-9.99473
▁최대	-9.99497
뉴	-9.99565
▁바꿔	-9.99574
칸	-9.99574
퀴	-9.99574
▁외계인	-9.99574
▁주성치	-9.99576
▁직접	-9.99581
▁군	-9.99625
것들	-9.9964
▁일품	-9.99686
▁방법	-9.99709
아쉽	-9.99742
▁영화인듯	-9.9979
끝까지	-9.99836
▁동안	-9.99855
▁어린이	-9.99882
▁미소	-9.99927
점정도	-9.99963
재밌음	-9.99988
까요	-9.99998
▁피해자	-10
▁즐기	-10.0006
세계	-10.001
▁싸이코	-10.0016
▁푹	-10.0019
▁수도	-10.002
이라서	-10.0022
필요	-10.0033
▁학교	-10.0034
▁뇌	-10.004
▁펑펑	-10.0042
▁지루하게	-10.0044
▁좋았으나	-10.0049
겠어요	-10.0051
▁역대급	-10.0056
▁18	-10.0062
▁있던	-10.0063
▁말하고	-10.007
▁용기	-10.0073
▁보자	-10.0074
흘	-10.0084
지네요	-10.0088
엔딩	-10.0091
힘	-10.0094
제발	-10.0097
인건	-10.0101
▁본다면	-10.0104
매력	-10.0109
이었음	-10.0115
▁해석	-10.0115
▁철학	-10.0119
누	-10.012
▁뭐라	-10.0121
▁없다는	-10.0127
ᄋᄋ	-10.0128
율	-10.0129
▁고양이	-10.0139
것같	-10.0142
▁좋겠어요	-10.0144
▁한번쯤	-10.0146
▁다룬	-10.0147
떨	-10.0147
워서	-10.0149
쥐	-10.0149
젤	-10.0149
▁올라	-10.0149
시즌	-10.0154
▁게다가	-10.0154
▁보러	-10.0164
▁챙겨	-10.0165
놔	-10.0167
버려	-10.0168
▁기대했는데	-10.0168
▁완전히	-10.0171
▁아이가	-10.0173
▁의미를	-10.0178
상태	-10.0184
▁들어가	-10.0189
좋아하는	-10.0194
▁설마	-10.0195
▁주말	-10.02
▁잊	-10.02
이자	-10.0201
▁실제로	-10.0205
▁괜찮다	-10.0206
▁앤	-10.0208
▁잊을	-10.0209
▁웃김	-10.021
it	-10.0212
험	-10.0214
쾌	-10.0215
▁중반	-10.0215
할수있	-10.0217
▁감동적	-10.0219
▁원작의	-10.022
더라도	-10.0222
▁그럴	-10.0227
컷	-10.0229
▁십	-10.023
둔	-10.023
▁지나치게	-10.023
▁일어나	-10.0235
▁웃기지도	-10.0235
▁넘치는	-10.0237
▁이유를	-10.0238
▁뛰어	-10.024
감동적	-10.0242
▁평론가들	-10.0242
▁사랑은	-10.0242
콩	-10.0246
▁교육	-10.0248
▁사랑의	-10.0249
▁쓰레기같은	-10.025
셔서	-10.0254
슬프	-10.026
▁연기력도	-10.0262
배경	-10.0262
▁비판	-10.0266
▁올려	-10.0269
쳤다	-10.0274
▁포르노	-10.028
받은	-10.0286
출연	-10.0286
▁이래	-10.0289
▁도전	-10.0296
▁중에서	-10.0298
▁밝	-10.0299
▁케이블	-10.0302
볼수있	-10.0311
새끼들	-10.0313
튀	-10.032
다는게	-10.0324
▁느껴진다	-10.0325
▁영혼	-10.0326
▁없지	-10.0327
읽	-10.034
년만에	-10.0346
▁크리스마스	-10.0355
같고	-10.0356
▁:	-10.0363
▁패러디	-10.0369
▁할까	-10.0377
▁엄	-10.0378
보여	-10.0379
▁원작이	-10.0386
명의	-10.039
▁한명	-10.039
감독님	-10.0392
▁많았	-10.0392
▁보며	-10.0393
▁좋아해서	-10.0395
▁팬이	-10.0401
시길	-10.0406
▁뜨	-10.0409
▁남자의	-10.0414
농	-10.0414
층	-10.0416
하기도	-10.0417
▁잼있다	-10.0421
중독	-10.0421
▁갔	-10.0426
▁어른들	-10.0429
▁행복한	-10.0431
꿀잼	-10.0432
▁평점보고	-10.0433
▁알수	-10.0437
꼴	-10.0438
▁꽝	-10.0438
스럽게	-10.044
▁꼽	-10.0445
▁모르게	-10.0446
곳	-10.045
▁진부하고	-10.0455
▁인상적이	-10.0456
그래서	-10.046
▁연기자들	-10.046
▁않을까	-10.0462
▁대중	-10.0465
잇는	-10.0471
▁오글	-10.0473
▁상처	-10.0475
▁a	-10.0478
▁아프	-10.0483
▁합	-10.0483
▁보여준다	-10.0485
▁똑같은	-10.049
▁답답한	-10.0495
아깝	-10.05
..........	-10.0501
▁그거	-10.0505
배우들의	-10.0509
▁블랙	-10.051
▁개성	-10.051
▁아까울	-10.0511
▁몇몇	-10.0513
▁반개도	-10.0514
▁봤을때	-10.0517
▁현실이	-10.0523
▁사랑이야기	-10.0525
▁해결	-10.0528
▁왠	-10.0529
▁먹고	-10.0534
▁뿐이다	-10.0537
치곤	-10.0539
▁모를	-10.054
▁시청	-10.054
▁이해하기	-10.0542
하기만	-10.0543
럴	-10.0546
▁무협	-10.0551
▁드립니다	-10.0562
하고싶은	-10.0566
▁잔인하	-10.0574
▁좋아할	-10.0579
아주	-10.058
▁개봉한	-10.059
개도	-10.0592
룡	-10.0593
뭔가	-10.0597
▁간다	-10.0598
ᅮᅮᅮ	-10.06
▁재밌다고	-10.06
▁밤	-10.06
솔	-10.0603
껴	-10.0604
켓	-10.0606
롤	-10.0606
▁잠깐	-10.0606
냄새	-10.0606
요소	-10.0607
▁뒤로	-10.0607
▁하는거	-10.061
▁레알	-10.0611
▁ᄋ	-10.0614
공감	-10.0616
▁많고	-10.062
똥	-10.0626
▁무섭지도	-10.063
▁생각나	-10.0633
얼굴	-10.0636
▁관한	-10.0648
▁훈훈한	-10.0651
▁쓰레기다	-10.0655
▁싶은데	-10.0656
▁가득	-10.0659
버림	-10.0669
기로	-10.067
▁밑	-10.0673
..;;	-10.0681
▁들었다	-10.0686
멘	-10.0687
▁가슴에	-10.0692
▁홍콩영화	-10.0692
나오고	-10.0693
붕	-10.0694
▁따로	-10.0701
▁디테일	-10.0702
▁젠장	-10.0702
▁안나	-10.0703
쟁이	-10.0704
▁빠진	-10.0704
▁결정	-10.0714
▁개막장	-10.0715
따위	-10.0715
▁감동적이다	-10.0725
▁주기	-10.0727
살아	-10.0732
속의	-10.0733
억지	-10.0734
깔	-10.0735
줬다	-10.0744
사람들이	-10.0753
▁잭	-10.0753
▁오랜만	-10.0754
▁대해서	-10.0758
감독의	-10.0758
겠습니다	-10.0761
식이	-10.0766
부족	-10.077
♥♥♥	-10.0776
딴	-10.0777
었네요	-10.0778
▁얼마	-10.0781
▁괜찮은데	-10.0785
▁폴	-10.0786
콘	-10.079
▁재미잇	-10.0791
▁아련	-10.0798
섹	-10.0798
넹	-10.0799
▁스트레스	-10.0799
▁감흥	-10.08
▁비현실적	-10.0802
잃	-10.0803
▁변태	-10.0808
▁커플	-10.0815
끄	-10.0817
공포영화	-10.0825
!!!!!!!!!	-10.0827
▁빠져들	-10.0831
▁낚시	-10.0835
밤	-10.0835
G	-10.0836
더빙	-10.0841
사람들은	-10.0848
오늘	-10.085
▁선생님	-10.0851
틱	-10.0851
초반	-10.0853
▁왠만하면	-10.0855
▁긴장감이	-10.0857
하겠다	-10.086
▁한마디	-10.0862
아까움	-10.0865
▁재미와	-10.0867
리아	-10.0868
보지	-10.0872
▁그녀의	-10.0873
▁좋아하는데	-10.0874
누나	-10.0876
▁보내	-10.088
스크	-10.0882
▁이용	-10.0887
쌍	-10.0892
안타깝	-10.0893
균	-10.0895
▁이제서야	-10.0897
▁소중한	-10.0898
▁기다려	-10.0899
마지막에	-10.0903
▁재밌던데	-10.0909
▁애기	-10.0914
▁있으	-10.0916
▁보여줬	-10.0921
▁관점	-10.0921
▁아침	-10.093
▁막판에	-10.0936
빛	-10.0936
붙	-10.0937
멍	-10.0937
푸	-10.0939
0%	-10.094
▁필름	-10.094
▁모르	-10.0943
쏘	-10.0943
▁실력	-10.0949
▁화가	-10.095
▁갖	-10.0951
스럽고	-10.0953
젠	-10.0954
▁보려고	-10.0958
닌	-10.0961
되네요	-10.0962
▁한국영화는	-10.0963
▁사람들의	-10.0963
어진	-10.0975
으니까	-10.0976
▁영화라는	-10.0983
st	-10.0984
▁앞으로도	-10.0984
바닥	-10.0986
▁생각하면	-10.0987
점줌	-10.0993
▁그렇지	-10.0996
렁	-10.0996
▁DVD	-10.0996
▁겨우	-10.0999
▁개뿔	-10.0999
▁풍경	-10.1001
▁통쾌	-10.1005
때부터	-10.1007
▁야동	-10.1014
편에	-10.1016
▁감히	-10.102
편도	-10.102
▁빵점	-10.1021
▁악마	-10.1024
▁미쳤	-10.1025
았는데	-10.1034
▁망치	-10.1035
▁있었지만	-10.1036
쓸	-10.1039
논	-10.1041
어떻게	-10.1041
장애	-10.1042
▁봣	-10.1045
▁탑	-10.1045
▁한심한	-10.1051
▁기자	-10.1055
▁안맞	-10.1055
▁믿을	-10.1059
▁속에서	-10.106
빨리	-10.1081
▁점수가	-10.1086
▁웃기다	-10.1091
▁자주	-10.1092
공주	-10.1094
▁말도안되는	-10.1097
납니다	-10.1097
▁할머니	-10.1101
▁짜증난다	-10.1102
자나	-10.1102
분은	-10.1108
있냐	-10.1108
했다고	-10.1109
▁잼있어요	-10.111
랜드	-10.1113
▁욕망	-10.1114
▁맞아	-10.1116
▁몇번	-10.112
▁전개도	-10.1125
▁작가님	-10.1129
▁추억이	-10.1131
▁하나의	-10.1133
맥	-10.1144
▁보여주고	-10.1145
▁헛	-10.115
▁결론	-10.1153
▁인해	-10.1156
▁심하게	-10.1156
▁못함	-10.1157
▁이때	-10.116
▁죽이는	-10.116
▁웃고	-10.1177
▁우리의	-10.1188
나왔	-10.1192
▁본영화	-10.1193
▁됨	-10.1194
▁웬	-10.1197
▁스크린	-10.1197
▁어린시절	-10.1199
거같은데	-10.1199
자를	-10.1202
▁보긴	-10.1203
▁정의	-10.1204
▁떨어	-10.1209
▁무술	-10.1211
▁있구나	-10.1212
▁보기에	-10.1219
볼만	-10.1219
하기에	-10.1222
보구	-10.1225
쩌	-10.1228
이걸	-10.1231
아까	-10.1238
적이다	-10.1249
겠네요	-10.125
P	-10.1252
굴	-10.1254
싸움	-10.1254
것같아요	-10.1257
▁없어요	-10.1257
▁할말이	-10.1262
어라	-10.1264
감정	-10.1269
▁에이	-10.1279
▁할수	-10.128
▁생각함	-10.1281
▁본거	-10.1281
▁봤었	-10.1283
겠음	-10.1283
▁졸리	-10.1288
모든	-10.1294
스톤	-10.1295
옹	-10.1298
▁둘이	-10.1299
▁흑인	-10.1302
▁참으로	-10.1303
점이다	-10.1304
▁짝이	-10.131
▁깨닫게	-10.1311
▁신경	-10.1317
▁그당시	-10.1317
▁퍼	-10.132
▁영화보면서	-10.1322
▁슈	-10.1324
▁왜이래	-10.1333
▁보았습니다	-10.1334
▁보통	-10.1335
▁심심	-10.1335
▁모두가	-10.1337
없어서	-10.1341
▁내면	-10.1342
다음	-10.1348
상실	-10.1354
큰	-10.1357
▁빌	-10.1366
▁끄	-10.1367
▁장르가	-10.1367
▁어릴	-10.1376
받았	-10.1379
▁쩝	-10.138
▁본방사수	-10.1381
싶다	-10.1382
▁옥	-10.1382
▁ᄉ	-10.1386
년도에	-10.1396
▁비디오로	-10.14
컬	-10.1402
▁재미없게	-10.1402
멸	-10.1402
K	-10.1402
z	-10.1402
삐	-10.1402
무서움	-10.1403
▁자신이	-10.1405
▁영원히	-10.1406
▁떨어진다	-10.1406
▁거짓말	-10.1407
인물	-10.141
▁참신한	-10.1415
몇	-10.1421
▁돼	-10.1421
▁아픈	-10.1425
▁맹	-10.1426
듯이	-10.1427
▁쓰는	-10.1428
~!!!	-10.1436
▁낮다	-10.1438
▁무서워	-10.144
▁만들면	-10.1455
▁11	-10.1457
▁소름이	-10.1458
▁세상을	-10.146
▁2014	-10.1462
▁다루	-10.1463
임에도	-10.1467
도안	-10.1475
▁않네요	-10.1476
▁조화	-10.1478
▁어쩔수	-10.1494
보이는	-10.1494
▁죽는줄	-10.1495
어린	-10.1499
셀	-10.1506
▁있는지	-10.1509
▁영화보는	-10.151
▁전쟁영화	-10.1516
▁위해서	-10.1518
▁방영	-10.1518
버전	-10.152
▁우리는	-10.152
거리는	-10.1523
▁잊을수	-10.1524
▁아내	-10.1525
냐고	-10.1525
▁색감	-10.1529
▁기회	-10.1541
▁불러	-10.1547
▁아픔	-10.1549
주면	-10.156
▁위로	-10.1562
▁재미있었	-10.1568
도아니고	-10.1569
안되는	-10.1572
▁명작입니다	-10.1574
▁시리즈중	-10.158
제작	-10.158
▁형님	-10.1588
▁콩	-10.1592
▁캐릭터가	-10.1601
ᄇ	-10.161
묵	-10.1611
쿨	-10.1612
▁동성애	-10.1612
손가락	-10.1612
▁바꾸	-10.1616
▁관객을	-10.162
▁화려하	-10.1622
▁몇년	-10.1628
▁흥	-10.1629
옴	-10.1633
그만	-10.1635
▁사진	-10.1636
보지말	-10.1637
생활	-10.1644
▁생각나서	-10.1646
▁정도의	-10.1654
같네	-10.1659
▁시간가는줄	-10.1665
▁받는	-10.167
▁못하다	-10.1674
▁야구	-10.1675
좋앗	-10.1682
▁줬	-10.1683
모두	-10.1684
▁옷	-10.1686
▁색	-10.169
▁하나하나	-10.169
신분들	-10.1694
당한	-10.17
머니	-10.1703
건가요	-10.1704
소설	-10.1706
신고	-10.1708
▁국가	-10.1708
▁특별한	-10.171
하길	-10.171
▁재난영화	-10.1715
랫	-10.1718
▁잔뜩	-10.1718
학년	-10.1719
▁나은	-10.172
▁여러가지	-10.172
▁모험	-10.1722
안됨	-10.1723
▁단어	-10.1724
▁하늘	-10.1727
▁알겠는데	-10.1727
▁대놓고	-10.1735
▁깎	-10.1735
싸우	-10.1743
▁감안	-10.1744
▁자신을	-10.1745
▁부모님	-10.1746
▁침	-10.1747
▁그건	-10.1747
▁배우를	-10.1749
기까지	-10.1751
뭐야	-10.1751
30	-10.1763
▁만든영화	-10.1764
▁ᄏᄏᄏᄏᄏᄏ	-10.177
▁가치가	-10.1778
▁훌륭하다	-10.1784
▁느꼈다	-10.1786
▁라고	-10.1792
허접	-10.1793
솔직히	-10.1794
L	-10.1795
▁충격적이	-10.1796
부분이	-10.1804
▁조잡	-10.1808
▁작품은	-10.181
어디	-10.1813
했지	-10.1817
▁다르다	-10.1821
숭	-10.1825
닉	-10.1826
▁척	-10.1826
▁무엇인지	-10.1829
▁억지스러운	-10.1832
▁여름	-10.1834
▁액션씬	-10.184
▁보지마라	-10.1843
쓰는	-10.1844
▁어이	-10.1845
▁도망	-10.1845
▁효과	-10.1847
▁중요	-10.1847
▁분들은	-10.1848
▁만들다니	-10.1849
▁감동의	-10.1851
▁없습니다	-10.1856
▁쿠	-10.1865
▁있었는데	-10.1867
▁비하면	-10.1868
짱짱	-10.1869
▁안타까운	-10.1872
▁최고였다	-10.1875
▁대본	-10.1883
▁이것이	-10.1884
랄까	-10.1892
스포	-10.1898
X	-10.1899
▁문제가	-10.1901
▁촌스럽	-10.1902
▁이런영화를	-10.1905
▁조작	-10.1906
야겠다	-10.1908
스키	-10.191
▁갖고	-10.1911
▁형사	-10.1912
▁전설의	-10.1913
좋음	-10.1917
닐	-10.1918
있습니다	-10.1919
▁쥐	-10.1922
대단	-10.1925
▁아예	-10.193
▁끈	-10.193
렷	-10.1934
쥬	-10.1934
▁짜임새	-10.1934
▁아이디어	-10.1934
▁색다른	-10.1935
▁잔인	-10.1941
▁비밀	-10.1943
오글	-10.1946
▁배역	-10.1949
▁모르겠음	-10.1951
▁이래서	-10.1955
▁등등	-10.1955
▁명화	-10.1963
▁살아가는	-10.1963
▁나머지	-10.1965
▁최근에	-10.1967
▁다운	-10.1967
▁멋지	-10.198
되나	-10.1983
만듬	-10.1987
▁사고	-10.1988
앞에서	-10.1993
았어요	-10.2002
라곤	-10.2003
▁D	-10.2004
▁기가	-10.2014
브라	-10.2016
▁만들수	-10.2017
주연	-10.2021
▁분위기가	-10.2021
사건	-10.2026
▁노래도	-10.2027
못하는	-10.2029
극장	-10.2032
개그	-10.2032
거같아요	-10.2033
닿	-10.2039
지요	-10.2041
헌	-10.2041
▁싶을	-10.2042
▁아닙니다	-10.2044
찔	-10.2044
ᅥ	-10.2044
▁제임스	-10.2045
▁sf	-10.2046
▁높게	-10.2046
▁거기에	-10.2046
▁극장가서	-10.2046
▁그저그런	-10.2049
▁술	-10.2054
아쉬웠	-10.2054
▁쩌	-10.2061
도대체	-10.2062
▁하나같이	-10.2065
▁지나도	-10.2067
▁기대이상	-10.2067
▁21	-10.2069
큐	-10.2072
물을	-10.2083
▁잼없	-10.2083
▁답답하고	-10.2086
때매	-10.2089
▁듣고	-10.2092
었을	-10.2094
▁수준의	-10.2094
▁돌리	-10.2094
▁감정이	-10.2096
▁죽이고	-10.2098
찾	-10.2098
▁에로영화	-10.2105
▁재미없었다	-10.2105
하하하	-10.2106
▁뭐하나	-10.2112
쓰레기영화	-10.2112
럼	-10.2124
덜	-10.2135
▁뛰어나	-10.214
▁개연성도	-10.2141
▁집에	-10.2144
▁출연한	-10.2151
엽	-10.2152
▁의미가	-10.2153
▁블록버스터	-10.2155
▁소소한	-10.2155
▁후속작	-10.2156
▁잔혹	-10.2157
▁감정이입	-10.2157
조금	-10.2158
▁아역	-10.2159
▁낚였다	-10.216
▁남자주인공	-10.2163
▁이따위	-10.2166
▁또다른	-10.2166
▁타임	-10.2167
▁빠지	-10.2168
▁성격	-10.2168
▁재미있습니다	-10.2176
▁맡	-10.2176
▁촌	-10.2177
▁부실	-10.2178
▁외국	-10.2178
이즈	-10.2179
▁낙	-10.2182
▁엉성하고	-10.2183
▁싸우는	-10.2185
겼	-10.2185
장르	-10.2192
▁기준	-10.2203
▁여운을	-10.2207
생각이	-10.2212
▁예쁘	-10.2214
▁잇	-10.2215
영화인데	-10.2226
▁연출과	-10.2233
▁죽인	-10.2233
본사람	-10.2234
하진	-10.2235
었네	-10.2235
▁정말이지	-10.2236
당시	-10.2238
야할	-10.2242
▁끝났	-10.2242
▁니들	-10.2248
이름	-10.2249
▁안볼	-10.2254
커플	-10.2256
객	-10.2261
▁가정	-10.2263
▁추리	-10.2265
영이	-10.2266
▁충실	-10.2268
▁울컥	-10.2268
있을	-10.2268
▁탄탄	-10.2269
▁작위적	-10.227
▁결코	-10.2271
▁어쩜	-10.2272
▁만들어도	-10.2273
받아서	-10.2274
▁연극	-10.228
▁전설	-10.2281
▁영상이	-10.2285
햇다	-10.2286
▁오래된	-10.2286
▁열연	-10.2286
▁슬퍼	-10.2292
였으면	-10.2295
▁예쁘고	-10.2296
▁낮네	-10.2299
▁막장드라마	-10.2304
해준다	-10.2308
▁까지	-10.2313
▁아니야	-10.2315
덕에	-10.2323
▁남은	-10.2325
▁싸움	-10.2328
절대	-10.2329
▁치고	-10.2329
▁푸	-10.2331
얻	-10.2332
끼리	-10.2342
▁오빠	-10.2351
본영화	-10.2357
▁매력을	-10.2359
▁낮아	-10.2359
여주	-10.2362
▁많은데	-10.2366
관객	-10.2367
헐	-10.2371
ᄏᄏᄏᄏᄏᄏᄏᄏᄏᄏᄏᄏᄏ	-10.2372
마냥	-10.2376
되었다	-10.2376
19	-10.2381
▁됩니다	-10.2381
▁잘봤어요	-10.2381
▁좋겠	-10.2383
▁최고임	-10.2385
자신	-10.2385
▁감각	-10.2386
▁데리고	-10.2386
▁적당히	-10.2389
▁길게	-10.2394
▁무척	-10.2395
보니까	-10.2402
▁잼나게	-10.2411
▁L	-10.2413
기에는	-10.2414
▁만남	-10.2414
야한다	-10.2415
▁노래가	-10.2425
놈이	-10.2426
주고싶다	-10.2427
▁가족영화	-10.2427
▁먼가	-10.2427
▁두고	-10.243
하더라	-10.2432
마리	-10.2434
▁뽑	-10.2435
▁알려	-10.2439
았습니다	-10.2453
▁공포물	-10.2454
지않아	-10.2455
▁반전은	-10.2456
▁가슴을	-10.2457
아빠	-10.2457
어이없	-10.2458
▁식상한	-10.2461
는거야	-10.2464
만하다	-10.2471
두고	-10.2471
▁내가본	-10.2471
왓	-10.2473
▁다운받아	-10.248
쓰고	-10.2483
▁결말을	-10.2486
비디오	-10.2488
<	-10.249
받아	-10.2492
액	-10.2495
찡	-10.2495
좌	-10.2496
뚱	-10.2496
룩	-10.2496
▁탄생	-10.2497
▁볼수있는	-10.25
▁흔들	-10.2502
▁승리	-10.2507
▁왔	-10.2507
재미없음	-10.2522
석이	-10.2523
▁집중해서	-10.2524
▁봅니다	-10.2525
혼자	-10.2526
고싶어	-10.2527
▁방식	-10.2529
보셈	-10.2529
든지	-10.2532
bb	-10.2533
했다면	-10.2535
년작	-10.2536
않다	-10.2542
▁구성이	-10.2544
▁별로임	-10.2544
믿	-10.2557
▁풍자	-10.2558
점이상	-10.2558
트리	-10.2559
▁아래	-10.2561
▁엿	-10.2562
▁O	-10.2568
▁만한	-10.2576
▁처럼	-10.2578
▁특이	-10.2578
▁의문	-10.2584
▁애들은	-10.2593
게임	-10.2596
▁봤네	-10.2597
▁요리	-10.2601
▁매력적	-10.2603
렵	-10.2608
했었	-10.2608
벗	-10.261
아저씨	-10.261
▁f	-10.2612
찐	-10.2612
★	-10.2612
▁아류작	-10.2612
뇌	-10.2613
▁즐거웠	-10.2613
갑니다	-10.2613
▁다양한	-10.2613
▁아무런	-10.2616
▁살다살다	-10.2617
▁빵	-10.2619
▁그만큼	-10.2621
▁현실적이	-10.2621
없는영화	-10.2622
▁만들었는지	-10.2623
ᄏᄏᄏᄏᄏᄏᄏᄏᄏ	-10.263
▁이럴	-10.2631
▁살면서	-10.264
긴다	-10.2641
번은	-10.2646
▁수많은	-10.2648
씬이	-10.2651
지루함	-10.2654
▁주인공은	-10.2656
▁기독교	-10.2657
▁생각했는데	-10.2658
▁잘만들었	-10.266
le	-10.2661
▁여러분	-10.267
기전에	-10.2671
▁내용인지	-10.2671
▁p	-10.2674
▁변화	-10.2677
▁멍	-10.2679
▁안습	-10.268
▁낮게	-10.2686
할만한	-10.2686
▁남자들	-10.2688
이후	-10.2689
영화입니다	-10.2696
▁마이	-10.27
▁헬	-10.27
▁보려	-10.2702
▁돈을	-10.2703
▁마지막장면	-10.2713
ut	-10.2718
겠죠	-10.272
▁응	-10.2725
삶	-10.273
칙	-10.273
▁로버트	-10.273
떨어진	-10.2731
▁집착	-10.2732
▁바랍니다	-10.2732
▁사상	-10.2732
하다고	-10.2734
둥이	-10.2739
▁남네요	-10.2744
▁넌	-10.2745
후회	-10.2751
▁조절	-10.2758
▁잼잇	-10.276
▁신파	-10.2765
▁빼면	-10.2769
▁조카	-10.2771
▁찾아보	-10.2774
▁그자체	-10.2781
여행	-10.2783
기법	-10.2783
ᅲᅲᅲᅲᅲ	-10.2784
▁놀랍다	-10.2784
려다	-10.2793
▁살린	-10.2793
▁축	-10.2796
▁밋밋	-10.2799
▁G	-10.2802
▁냉	-10.2803
▁한국에서	-10.2804
▁몰랐다	-10.2808
80	-10.2808
거죠	-10.2818
▁핵노잼	-10.2821
▁이상하게	-10.2823
▁짧은	-10.2825
▁궁	-10.283
▁책을	-10.2835
▁샘	-10.2837
▁열받	-10.2837
▁뭘까	-10.284
만드네	-10.284
둥	-10.2841
▁손에	-10.2844
▁뭐니	-10.2847
엑	-10.2849
핑	-10.2849
벼	-10.2849
▁플롯	-10.2849
▁특수효과	-10.2849
▁앞뒤	-10.2851
▁보기에는	-10.2851
널	-10.2851
법한	-10.2853
▁등장인물	-10.2856
▁놀라운	-10.2857
▁낮지	-10.286
해주고	-10.2862
막히	-10.2862
▁잘하는	-10.2864
▁주기도	-10.2871
▁운명	-10.2879
▁북	-10.288
▁궁금하다	-10.2884
평가	-10.2886
같아서	-10.2887
▁199	-10.2887
배우가	-10.2891
▁해라	-10.2892
▁솔직	-10.2893
▁생활	-10.2894
점대는	-10.29
▁ᄀ	-10.2901
▁생긴	-10.2903
▁코미디영화	-10.2908
▁원작에	-10.2912
▁인도	-10.2916
▁형편없	-10.2921
▁망친	-10.2927
거같음	-10.2927
▁가면	-10.2934
하는영화	-10.2942
▁예쁘다	-10.2944
사를	-10.2945
것만으로도	-10.2947
었나	-10.2949
쳐서	-10.2953
▁새로	-10.2957
어지는	-10.2965
찮	-10.2968
핀	-10.297
긋	-10.297
▁러시아	-10.297
▁교과서	-10.297
▁심지어	-10.297
▁위험	-10.2972
▁짜증만	-10.2977
▁여자친구	-10.2978
▁거리	-10.2981
▁좀비영화	-10.2984
재밌어	-10.2985
▁좋겠네요	-10.2986
▁꽤나	-10.2988
▁주제를	-10.2993
▁반대	-10.2994
!!!!!!!!!!!!!!!!	-10.2996
▁느꼈	-10.2996
40	-10.2997
▁재미도없고	-10.2998
▁몽	-10.2998
▁부분도	-10.2998
▁아쉽지만	-10.2999
▁여주가	-10.3004
▁않아서	-10.3009
▁마지막까지	-10.3011
후에	-10.3011
▁교훈을	-10.3021
▁잠이	-10.3022
▁떨	-10.3025
▁몰입도가	-10.3036
▁안맞는	-10.3037
▁와닿	-10.3046
▁소설을	-10.3057
▁잼나	-10.306
▁연기력은	-10.3062
▁불쌍하다	-10.3069
▁때려	-10.3073
라는걸	-10.3075
▁느껴지	-10.3078
▁잘하고	-10.3082
▁삶이	-10.3082
줘도	-10.3085
픽	-10.3088
해야할	-10.3088
▁대단하	-10.3089
뽕	-10.3091
▁가벼운	-10.3092
▁반드시	-10.3092
옆	-10.3096
▁폐지	-10.3097
▁인상적	-10.3097
▁혹은	-10.3097
▁첫사랑	-10.3098
▁캬	-10.3098
F	-10.31
▁체	-10.31
▁담겨	-10.31
긴장감	-10.3102
▁어느정도	-10.3102
촌	-10.3103
흠	-10.3104
▁봤을까	-10.3106
▁무료	-10.3107
좋았다	-10.3108
이었습니다	-10.3112
보고싶다	-10.3113
보기싫	-10.3113
▁순수함	-10.3115
▁따분	-10.3115
것같은	-10.3116
관람	-10.3121
▁있다니	-10.3122
▁아까웠다	-10.3124
▁휘	-10.3129
없네요	-10.3129
▁욕심	-10.3131
▁60	-10.3132
▁호구	-10.3138
목숨	-10.314
▁정작	-10.3143
▁레이	-10.3148
긴하지만	-10.3148
▁확인	-10.3148
▁언니	-10.3152
as	-10.3156
▁매일	-10.316
▁맞지	-10.3165
▁떨어지고	-10.317
▁어울리는	-10.317
▁최고로	-10.3179
깝	-10.3181
수없는	-10.3188
▁목적	-10.319
▁처음에는	-10.3192
할것	-10.3193
▁내용과	-10.3194
▁안본	-10.3195
▁일반	-10.3197
것처럼	-10.3198
▁넘게	-10.3202
뿐이다	-10.3204
▁몰라	-10.3205
필요없	-10.3213
▁시청률이	-10.3213
▁역사를	-10.3214
▁임팩트	-10.3215
▁주윤발	-10.3215
퓨	-10.3215
▁인내심	-10.3215
▁짜집기	-10.3215
▁어설프고	-10.3216
▁자체는	-10.3217
▁알수있	-10.3218
▁버리	-10.3218
▁크리스	-10.3221
12	-10.3223
▁으리	-10.3225
▁한숨	-10.3225
▁여자주인공	-10.3225
오르	-10.3227
▁그야말로	-10.3228
▁포스	-10.323
▁약간의	-10.3231
보는게	-10.3231
궁	-10.3231
팀	-10.3232
화이팅	-10.3234
갓	-10.3234
▁보아	-10.3236
졸작	-10.3242
라지만	-10.3242
▁아름답게	-10.3243
질질끌	-10.3244
▁책임	-10.3247
스토리도	-10.3248
▁짜증나서	-10.326
▁불편한	-10.326
▁여전	-10.3262
는구나	-10.3267
시오	-10.3268
생김	-10.327
▁그립다	-10.3272
▁없으면	-10.3272
▁포스터가	-10.3273
또한	-10.3284
있었다	-10.329
▁태어나서	-10.3291
▁볼때	-10.3295
▁모른다	-10.3296
▁다시보니	-10.3297
씨는	-10.33
▁곳	-10.3301
▁엉망이	-10.3302
▁당신은	-10.3304
때마다	-10.3312
▁줄수	-10.3315
다운받	-10.3316
▁무리	-10.3316
재미도	-10.332
▁한편의	-10.3327
▁친구가	-10.3329
▁가져	-10.3332
▁1,2	-10.3335
▁러닝타임	-10.3335
▁아닐	-10.3336
춰	-10.3337
었는지	-10.3338
^-^	-10.334
▁해리포터	-10.334
탱	-10.334
▁쓸데없이	-10.334
▁장국영	-10.334
▁유일한	-10.3341
▁보다는	-10.3343
▁당연히	-10.3344
▁일부러	-10.3345
▁업	-10.3347
▁아까운영화	-10.3349
▁엘	-10.335
▁재밌지	-10.3351
▁첨엔	-10.3351
▁범	-10.3353
▁했으면	-10.3354
▁나름대로	-10.3356
▁귀여워	-10.3358
▁이딴걸	-10.3359
빌	-10.3363
▁이야기는	-10.3363
려다가	-10.3364
웨이	-10.3373
▁심장	-10.3374
방식	-10.3376
▁생각으로	-10.338
▁때문	-10.3381
▁강렬한	-10.3385
이든	-10.3391
▁명장면	-10.3394
▁많은걸	-10.3395
있지	-10.3396
▁시리즈는	-10.3397
▁만든거	-10.3397
▁배신	-10.34
▁모르겟	-10.3405
려나	-10.3406
▁선물	-10.3415
▁아름답	-10.3418
같은영화	-10.3419
▁깜	-10.3421
▁영화화	-10.3428
▁피해	-10.3432
▁이해할수	-10.3435
25	-10.3439
▁명작을	-10.3441
▁소재도	-10.3442
적이지	-10.3447
▁ᄍᄍᄍ	-10.345
돋	-10.3458
꾼	-10.3463
▁멋졌	-10.3465
▁배트맨	-10.3467
▁설득력	-10.3467
▁심형래	-10.3467
컴	-10.3467
▁유일하게	-10.3467
▁of	-10.3467
▁로코	-10.3475
▁근래	-10.3476
▁특별	-10.3477
▁희망을	-10.3482
▁어른이	-10.3487
굳	-10.349
▁어렵다	-10.3492
▁하나로	-10.3493
추억	-10.3494
달아	-10.3497
느껴	-10.3497
포스터	-10.3501
▁엔딩이	-10.3502
▁시간아깝다	-10.3512
▁모든걸	-10.3516
될듯	-10.3518
언제	-10.3525
▁바다	-10.3533
▁보던	-10.3534
보인다	-10.3537
▁소년	-10.3538
주기	-10.3538
▁재미없어서	-10.3538
▁조선	-10.3543
▁수작이다	-10.3545
▁쓰고	-10.3553
▁무엇	-10.3553
듯하다	-10.3557
▁음식	-10.3557
고싶은	-10.3561
▁수입	-10.3562
▁연기자	-10.3565
로드	-10.3569
▁가족이	-10.3572
▁소재와	-10.3577
쩜	-10.359
▁괜찮았다	-10.3594
딘	-10.3595
ᄁ	-10.3595
▁dvd	-10.3595
▁you	-10.3595
▁뱀파이어	-10.3595
▁이끌어	-10.3595
▁내생에	-10.3596
▁찬	-10.3596
▁배경음악	-10.3599
▁웃으면서	-10.36
▁할아버지	-10.36
▁따뜻하고	-10.3612
▁틀어	-10.3613
▁나에겐	-10.3619
▁케이블에서	-10.3624
앤	-10.3626
덤	-10.3627
▁괜찮음	-10.3627
▁많아서	-10.3628
시나리오	-10.3628
걍	-10.3629
▁타고	-10.3633
▁기억나는	-10.3633
레스	-10.3635
▁쉬	-10.3641
▁새벽에	-10.3641
▁최고의영화	-10.3645
▁영화인지	-10.3648
▁보다니	-10.3649
▁영상과	-10.3653
였나	-10.3658
▁느낌의	-10.3658
낫	-10.366
▁이상하고	-10.3663
본영화중	-10.3663
테러	-10.3667
▁죽었	-10.3669
▁나랑	-10.3672
에대해	-10.3675
베리	-10.3678
알아	-10.368
▁격	-10.3681
씀	-10.3684
좋은영화	-10.3685
▁오락영화	-10.3689
▁한번도	-10.3691
하러	-10.3692
능력	-10.3694
▁혹시	-10.3697
▁흐르는	-10.3698
▁상대	-10.3699
볼수	-10.37
저리	-10.3707
▁배우들은	-10.3708
육	-10.3709
▁봤어	-10.3709
높은	-10.371
▁살리	-10.3712
▁본게	-10.3714
100	-10.3716
보여주	-10.3716
미국	-10.3718
오브	-10.3722
ᅮᅲ	-10.3724
깃	-10.3725
뗄	-10.3725
셋	-10.3725
▁이소룡	-10.3725
▁홍상수	-10.3725
제로	-10.3726
▁착각	-10.3726
▁잤다	-10.3728
할뿐	-10.3728
▁강한	-10.3729
톤	-10.3729
할거	-10.3738
타임	-10.3738
역사	-10.3738
▁울리는	-10.3742
▁장면도	-10.3743
▁처음에	-10.3744
▁동양	-10.3745
▁이런건	-10.3749
▁재미로	-10.3751
▁저급	-10.3751
▁쩔	-10.3753
아버지	-10.3756
싫어	-10.3756
▁동심	-10.3759
▁살아있	-10.376
꿈	-10.3763
배우들이	-10.3764
웃김	-10.377
▁돋보이는	-10.3775
연기는	-10.3778
▁영화인가	-10.3779
보긴	-10.3781
▁포인트	-10.3784
▁봐야하는	-10.3789
멜로	-10.3795
▁놓고	-10.3795
▁재밌어서	-10.3796
▁짜증이	-10.3799
▁곧	-10.38
▁슬펐	-10.3805
▁한국의	-10.3806
▁^	-10.3809
먹은	-10.3811
▁있네	-10.3811
▁꼬마	-10.3814
▁밀려	-10.3815
놀이	-10.3832
찾기	-10.3835
뭔	-10.3841
▁아깝고	-10.3842
▁감동은	-10.3848
▁ᄏᄏᄏᄏᄏᄏᄏ	-10.3848
▁받은	-10.3851
▁여자의	-10.3853
▁조니뎁	-10.3856
럭	-10.3856
젖	-10.3856
▁고등학교	-10.3856
▁대통령	-10.3856
▁할리우드	-10.3856
▁숨겨진	-10.3856
▁제이슨	-10.3857
▁영환데	-10.3857
▁맞춰	-10.3858
▁현실과	-10.3859
재미있게	-10.3861
▁어째	-10.3864
못보겠	-10.3864
▁힘내	-10.3866
▁두번째	-10.3867
조연	-10.3868
▁잘못된	-10.3874
▁좋네	-10.3875
▁후에	-10.3876
▁이해를	-10.3878
받을	-10.3886
▁독일	-10.3887
▁아쉬움이	-10.3887
▁재미있을	-10.3887
▁톰	-10.3888
▁난해	-10.389
▁어디에	-10.3893
▁우연	-10.3894
▁없었음	-10.3896
몸	-10.3897
캐스팅	-10.3897
치고는	-10.3897
분위기	-10.3898
▁난잡	-10.3901
느끼	-10.3905
목소리	-10.3906
▁키스	-10.3907
▁싶어요	-10.3909
▁생각할	-10.3912
▁뻔하	-10.3916
▁신선하	-10.3925
▁들고	-10.3927
▁주제가	-10.393
일듯	-10.3934
못한	-10.3937
▁부부	-10.3939
지말자	-10.3941
못하고	-10.3942
▁연인	-10.3943
▁가수	-10.3946
▁초딩때	-10.3953
보시길	-10.3954
▁재밋어요	-10.3956
▁하아	-10.3965
▁자랑	-10.3965
▁마음으로	-10.3968
▁정보	-10.3975
▁갔다	-10.3975
에게는	-10.3978
▁삼류영화	-10.398
▁남았	-10.3984
젊	-10.3987
듣	-10.3989
▁줍니다	-10.399
U	-10.399
▁늑대	-10.399
▁실화를	-10.399
▁하길래	-10.3994
더라면	-10.3994
▁과학	-10.3995
▁사라지	-10.3996
▁충분	-10.3996
▁언제봐도	-10.3997
▁여러번	-10.3997
▁다섯	-10.4
!!!!!!	-10.4
▁디워	-10.4003
▁재능	-10.4004
▁의사	-10.4004
▁단순히	-10.4004
어색	-10.4009
▁마약	-10.4009
▁검색	-10.401
▁혹시나	-10.402
장면은	-10.4032
▁공감할	-10.4034
데요	-10.4036
춤	-10.4039
▁클레멘타인	-10.4042
맞는	-10.4043
▁하다가	-10.4044
▁보이지	-10.4052
▁=	-10.4052
▁어색하고	-10.4055
ᄍ	-10.4057
메이	-10.4065
▁안간다	-10.4065
극장에서	-10.4066
▁발상	-10.4067
▁장면들	-10.4068
▁머리가	-10.4072
▁제목만	-10.4074
티비	-10.4079
▁실수	-10.4084
▁장면을	-10.4102
▁아니지	-10.4108
▁별로고	-10.4108
15	-10.4109
▁진수	-10.4113
▁F	-10.4114
낭	-10.4116
납	-10.4122
스카	-10.4123
폼	-10.4123
곱	-10.4125
▁컴퓨터	-10.4125
눌	-10.4125
뎅	-10.4125
밴	-10.4125
부끄럽	-10.4125
템	-10.4125
▁희대의	-10.4125
▁박진감	-10.4125
▁사운드	-10.4125
▁익숙	-10.4125
▁정상	-10.4125
▁깜짝	-10.4126
▁뭐하자는	-10.4127
▁실험	-10.4127
▁엄마가	-10.4127
▁빠른	-10.4127
▁떨어짐	-10.4127
▁시간만	-10.4129
른다	-10.413
▁처절	-10.4131
▁하는게	-10.4134
▁훈훈	-10.4134
됐다	-10.4136
▁유치해	-10.4137
▁이상해	-10.4139
있지만	-10.4141
▁짜증남	-10.4142
기도하고	-10.4143
▁개노잼	-10.4143
▁가족들	-10.4148
조아	-10.4149
▁서양	-10.415
재밌는	-10.4159
▁모르겠네요	-10.4162
▁예능	-10.4165
▁없나요	-10.4166
▁X	-10.4169
▁잼있음	-10.4169
..............	-10.4176
▁이상의	-10.4177
차이	-10.4179
칼	-10.418
▁다르게	-10.418
하니까	-10.4182
▁터미네이터	-10.4183
엄청	-10.4183
▁아냐	-10.4184
▁지겹다	-10.4186
▁멋지고	-10.419
갈때	-10.4192
▁상관	-10.4193
▁불쌍한	-10.4196
▁중심	-10.4197
모르고	-10.42
▁인생에	-10.4205
같았	-10.421
▁깔	-10.4211
▁세상이	-10.4215
어여	-10.4216
▁점수는	-10.4218
▁사용	-10.4219
▁거장	-10.423
▁나네요	-10.4234
갔는데	-10.4237
줄알았	-10.4239
▁안봐도	-10.4244
▁아니라고	-10.4247
하는건지	-10.4251
흡	-10.4255
en	-10.4257
▁만들기	-10.4257
▁제니퍼	-10.4262
▁매니아	-10.4264
바라	-10.4265
▁응원	-10.4266
분만에	-10.4267
▁상영관	-10.4269
▁있다고	-10.427
줄알았는데	-10.427
▁판단	-10.4271
▁이뻐서	-10.4277
▁이토록	-10.4279
아까운	-10.4279
▁봐도봐도	-10.4285
▁최고봉	-10.4286
♥♥♥♥	-10.4286
ᄏᄏᄏᄏᄏᄏᄏᄏᄏᄏᄏ	-10.4287
▁멋있는	-10.4289
▁그것도	-10.4292
▁주연배우	-10.4292
▁높아서	-10.4296
▁봤다면	-10.4298
▁그동안	-10.4305
우스	-10.4307
하시길	-10.4322
보소	-10.4331
▁반전을	-10.4334
▁논리	-10.4343
내용은	-10.4343
▁사투리	-10.4346
▁알겠다	-10.4348
▁조용	-10.4349
▁달려	-10.435
▁생겼	-10.4351
표정	-10.4354
▁아이들과	-10.4354
▁앞에	-10.4366
제대로	-10.4371
으려고	-10.4372
▁쉽지	-10.4372
올라	-10.4373
차별	-10.4386
▁이런영화는	-10.4388
▁빵빵	-10.439
▁감독을	-10.4391
▁내게	-10.4391
▁맛이	-10.4392
ᄎ	-10.4401
쿵	-10.4401
▁네티즌	-10.4401
얄	-10.4401
▁도무지	-10.4401
할수가	-10.4402
▁W	-10.4408
▁재미없을	-10.4415
▁내용전개	-10.4417
▁이루	-10.442
여운이	-10.442
았지만	-10.4422
▁to	-10.4422
▁재밋음	-10.4427
▁집중이	-10.4431
▁하지원	-10.4431
하군	-10.4432
▁그럴듯	-10.4432
▁궁금해서	-10.4434
선생	-10.4445
al	-10.4449
▁정신병자	-10.445
▁내일	-10.4451
▁메이	-10.4463
이었던	-10.4467
▁보라	-10.4477
애들이	-10.4487
웃겨	-10.4488
하지마	-10.4489
것보다	-10.449
▁알겠	-10.4491
엇는데	-10.4494
때까지	-10.4498
▁말하고자	-10.4506
구리	-10.4508
▁남긴	-10.4509
~~!!	-10.4511
▁얼굴이	-10.4515
▁현실감	-10.4515
▁재미있어	-10.4519
않음	-10.452
▁오브	-10.4526
▁떼	-10.4526
▁작품입니다	-10.4528
▁어디가	-10.4529
낀	-10.4538
▁왤케	-10.4541
닷	-10.4541
▁아놀드	-10.4542
▁흑백	-10.4542
▁하정우	-10.4542
분을	-10.4542
▁없게	-10.4543
▁폭풍	-10.4544
뭐냐	-10.4545
▁재개봉	-10.4546
▁죽고	-10.4546
▁만화책	-10.4547
▁루즈	-10.4548
▁짜증나고	-10.4549
▁폭발	-10.4549
▁2000	-10.4551
▁거북	-10.4551
▁갑니다	-10.4552
▁찾는	-10.4553
▁배우도	-10.4553
▁여주인공이	-10.4556
▁공짜로	-10.4557
▁괜찮았는데	-10.4558
▁반담	-10.4562
▁배경이	-10.4565
▁잡아	-10.4565
▁하품	-10.4566
나왓	-10.457
▁이름이	-10.457
es	-10.4577
▁잊고	-10.4581
드립	-10.4585
▁끝에	-10.4585
▁쭉	-10.4586
▁뭣	-10.4586
▁배우는	-10.4589
▁인형	-10.4589
하거나	-10.4591
▁유발	-10.4603
▁기타	-10.4607
▁공간	-10.4609
꽃	-10.4612
탑	-10.4614
불쌍	-10.4616
CG	-10.4616
벤	-10.4618
~~~~~	-10.462
▁설정이	-10.4629
류영화	-10.4629
▁말자	-10.4629
▁이드라마	-10.463
아무리	-10.4632
▁사람도	-10.4637
있던	-10.4645
만큼이나	-10.4655
▁박수	-10.4657
드만	-10.4657
▁부정	-10.4661
져요	-10.4661
▁사랑해	-10.4666
▁겁	-10.4669
▁대신	-10.4669
▁허술한	-10.467
하지말고	-10.4674
점주	-10.4679
▁사랑한다	-10.4681
깍	-10.4682
맙	-10.4684
▁나레이션	-10.4684
▁쓸데없는	-10.4684
▁컨셉	-10.4684
▁뭥미	-10.4684
▁Good	-10.4684
덩어리	-10.4685
▁잔잔하게	-10.4685
없나	-10.4686
소름돋	-10.4686
▁꿈꾸	-10.4686
▁빅	-10.4687
▁불안	-10.4688
▁각색	-10.4688
▁진부	-10.4689
▁흘리	-10.4689
▁압도	-10.469
모자	-10.4691
▁극복	-10.4691
▁환경	-10.4691
▁적어도	-10.4691
▁보게된	-10.4693
▁무엇인가	-10.4694
▁이루어	-10.4702
▁탈출	-10.4705
▁소중함을	-10.4706
▁어거지	-10.4712
씁쓸	-10.4719
▁스릴도	-10.472
▁평소	-10.472
햇는데	-10.4723
▁볼만했다	-10.474
▁여자애	-10.4742
상영	-10.4744
▁마지막회	-10.4745
흥	-10.475
▁영상미가	-10.4751
▁기대없이	-10.4751
▁케릭터	-10.4751
멋있	-10.4751
▁벤	-10.4752
~~^^	-10.4754
▁담배	-10.4762
▁결론은	-10.4763
포인트	-10.4763
평론가	-10.4764
▁김치	-10.4764
개인적으로	-10.4765
뭘	-10.4765
▁가득한	-10.4766
범죄	-10.4767
▁없냐	-10.4768
▁지루하기	-10.477
ll	-10.4771
▁얘	-10.4774
비슷	-10.4777
앞으로	-10.4784
▁테러	-10.4786
▁아우	-10.4786
렬	-10.4788
▁즐	-10.479
발랄	-10.4793
▁연출은	-10.4796
▁따뜻해	-10.4798
▁따위	-10.4798
▁가능한	-10.4802
▁귀엽다	-10.4803
트로	-10.4816
▁끌고	-10.4818
▁땡	-10.4828
굿굿굿	-10.4829
^^*	-10.4829
갱	-10.4829
뚝	-10.4829
랭	-10.4829
옳	-10.4829
웟	-10.4829
▁명불허전	-10.4829
▁오프닝	-10.4829
뻥	-10.4829
▁리얼리티	-10.4829
랩	-10.4829
▁명복을	-10.4829
▁걱정	-10.483
▁달콤	-10.483
▁평균	-10.4832
발연기	-10.4833
▁명대사	-10.4833
▁파괴	-10.4836
▁돈내고	-10.4837
▁같고	-10.4838
▁믿고보는	-10.4839
▁빛을	-10.4841
▁자극적인	-10.4842
▁만약	-10.4842
자마자	-10.4845
▁일본인	-10.4845
▁오랫만에	-10.4846
▁뒤에	-10.4848
▁영화라니	-10.485
▁유행	-10.4855
▁가고	-10.4855
▁유쾌하게	-10.4857
▁담은	-10.486
▁손발	-10.4861
존나	-10.4865
▁않았지만	-10.4868
▁관련	-10.4868
▁히어로	-10.4874
▁아들이	-10.4887
▁본건데	-10.4887
▁시대에	-10.4887
-_-;	-10.4891
▁우뢰매	-10.4897
었을까	-10.4901
▁소화	-10.4905
▁유덕화	-10.4908
500	-10.4909
▁놀랍	-10.4909
▁더럽	-10.491
▁정신없	-10.4913
물로	-10.4914
▁좋을듯	-10.4917
▁전쟁의	-10.492
낮은	-10.492
바람	-10.4924
▁의지	-10.4924
▁강렬	-10.4927
할줄	-10.4927
자들의	-10.4928
기억이	-10.4932
등록	-10.4932
출신	-10.4935
멜	-10.4941
▁정도면	-10.4946
이딴	-10.4947
▁갓	-10.4953
▁의상	-10.496
자들이	-10.4962
▁여자는	-10.4963
느낌이	-10.4967
앉	-10.497
맞고	-10.4971
▁눈물나	-10.4973
▁액션신	-10.4974
▁묻어	-10.4974
▁송강호	-10.4976
껀	-10.4976
▁늦게	-10.4976
▁인터넷	-10.4976
▁내생애	-10.4976
▁동시에	-10.4977
▁찍고	-10.4979
▁좋다고	-10.498
▁보시면	-10.498
▁장난하냐	-10.4982
▁유럽	-10.4989
▁만들어서	-10.4993
▁거품	-10.4994
▁놓치	-10.4994
▁살인마	-10.4996
그러나	-10.4996
감독은	-10.4999
같아	-10.5
▁신의	-10.5004
▁일본은	-10.5004
▁보았는데	-10.5006
▁적당한	-10.5008
▁절정	-10.5009
▁보는거	-10.501
맘	-10.5013
▁서울	-10.5014
▁평화	-10.5015
▁만난	-10.5016
▁원조	-10.5017
느니	-10.5018
▁녹아	-10.5018
▁아깝네	-10.5019
하자면	-10.5019
가면서	-10.5019
▁난리	-10.5021
▁쫓	-10.5023
외로	-10.5025
▁포스터에	-10.5027
간만에	-10.5029
▁사실을	-10.503
▁세번	-10.5031
▁사랑해요	-10.5033
▁아니었다	-10.5037
소녀	-10.5038
▁분들이	-10.5042
▁읽어	-10.5046
▁매미	-10.505
▁황당한	-10.505
90	-10.5054
▁어울리지	-10.5056
▁먹는	-10.5059
▁자동차	-10.5062
즐	-10.5068
▁갖다	-10.5068
코믹	-10.5068
▁믿기지	-10.5069
▁넣어	-10.5072
그럼	-10.5077
놨네	-10.508
▁육	-10.5082
▁안될	-10.5083
▁받고	-10.5085
해지고	-10.5088
▁인간은	-10.5089
므	-10.5091
봣다	-10.5106
어용	-10.5107
▁답이	-10.5116
▁자아	-10.5119
▁재미있는데	-10.5123
▁목소리가	-10.5124
▁따라가	-10.5124
▁최소	-10.5125
빗	-10.5125
벅	-10.5125
셉	-10.5126
▁스티븐	-10.5126
똘	-10.5126
▁짐캐리	-10.5126
켄	-10.5126
▁전반적으로	-10.5126
▁가까운	-10.5126
▁우려먹	-10.5126
마누라	-10.5126
▁좋았을텐데	-10.5128
스텝	-10.5129
▁역량	-10.5129
광고	-10.513
▁표현할	-10.5136
▁재미없다고	-10.5136
▁한국영화의	-10.5138
분동안	-10.5142
것같은데	-10.5143
힘들	-10.5149
▁탄탄하고	-10.5154
▁만들었나	-10.5155
▁축구	-10.5157
▁모아	-10.5159
보고있어요	-10.516
▁ᄏᄏᄏᄏᄏᄏᄏᄏ	-10.5162
▁스토리전개	-10.5163
▁명배우	-10.5165
▁오락	-10.517
▁시작부터	-10.5171
▁답답함	-10.5173
▁아깝네요	-10.5177
▁링	-10.5179
새롭	-10.5185
있어요	-10.5186
▁한국판	-10.5187
편에서	-10.5188
▁어쩌면	-10.5192
▁왜곡	-10.5194
곳에서	-10.5196
▁영화였음	-10.5197
낚	-10.5201
나름	-10.5211
봐야지	-10.5218
델	-10.5222
▁읽고	-10.5223
섬	-10.5225
찾아	-10.5226
꼽	-10.5228
스토리가	-10.5232
▁포스터만	-10.5233
노답	-10.5237
▁웃을	-10.5237
여운	-10.5238
▁명연기	-10.5241
th	-10.5244
재미있어요	-10.5246
쩐다	-10.5248
행복	-10.5249
▁무섭고	-10.5253
▁그립	-10.5255
빠진	-10.5259
윈	-10.5264
▁생에	-10.5267
▁등장인물들	-10.5269
교회	-10.5271
▁겨울	-10.5274
스럽지	-10.5276
▁알았네	-10.5276
▁듭니다	-10.5277
▁아무생각없이	-10.5277
몫	-10.5277
썸	-10.5277
▁깡패	-10.5277
▁양아치	-10.5277
▁첩보	-10.5277
▁갠적으로	-10.5277
▁정우성	-10.5277
였지	-10.5279
▁죄송	-10.5279
▁이런류의	-10.5279
▁민폐	-10.528
▁소장	-10.5281
▁은근히	-10.5283
▁곰	-10.5285
▁만들어낸	-10.5289
보게되	-10.5291
▁일부	-10.5292
▁기존	-10.5293
글자	-10.5294
▁시나리오가	-10.5295
▁다시보고	-10.5296
▁한개도	-10.5301
▁꿀	-10.5303
▁사람이라면	-10.5305
▁이번에	-10.5309
▁생각난다	-10.5315
▁친구랑	-10.5317
▁액션과	-10.5318
잖아요	-10.5319
▁초등학교	-10.532
오래	-10.5323
▁강간	-10.5323
▁전개와	-10.5325
되요	-10.5327
▁생명	-10.5327
빠지	-10.5328
▁듣	-10.5333
▁그것이	-10.534
▁화나	-10.5341
아이들	-10.5341
성과	-10.5343
▁굴	-10.5343
▁좋지	-10.5343
나오네	-10.5345
같지만	-10.5349
▁한방	-10.5351
▁매력에	-10.5351
나보다	-10.5351
자식	-10.5354
▁본듯	-10.5358
▁만들어주	-10.5359
▁싱	-10.536
▁봐야지	-10.5364
,,,,,,	-10.5365
▁사람들에게	-10.5365
꺼면	-10.5368
▁되네요	-10.5373
였을	-10.5374
▁찍는	-10.5377
▁지겹	-10.5377
▁싶었다	-10.5379
없구	-10.538
▁불가능	-10.5381
휘	-10.5381
▁느낌은	-10.5383
왔어요	-10.5384
▁:)	-10.5385
그렇게	-10.5385
부터가	-10.5385
▁녹	-10.5389
▁쩔어	-10.5403
ᄏᄏᄏᄏᄏᄏᄏᄏᄏᄏ	-10.5409
▁팀	-10.5409
나쁜	-10.5419
점부터	-10.5428
뭉	-10.5431
▁빕니다	-10.5431
▁쏟아	-10.5431
▁역겨운	-10.5431
▁스포츠	-10.5431
▁누군지	-10.5431
괜찬	-10.5432
▁블랙코미디	-10.5432
▁헛웃음	-10.5432
▁왠만한	-10.5433
▁잔잔하면서	-10.5435
▁즐길	-10.5435
▁이것보단	-10.5437
▁이해불가	-10.5438
천원	-10.544
▁말아야	-10.5444
▁과장	-10.5444
미친	-10.5446
▁천국	-10.5446
▁여태	-10.5447
아직도	-10.5449
▁담긴	-10.5449
▁100%	-10.5454
▁그것을	-10.5455
▁치유	-10.5463
▁비중	-10.5465
아니면	-10.5467
▁재난	-10.5468
▁데이	-10.5468
▁심한	-10.5468
주고싶	-10.5468
▁영원한	-10.5469
숨	-10.547
▁드러	-10.5472
▁길이	-10.5474
▁최소한	-10.5474
▁나오는데	-10.5474
▁P	-10.548
▁영화예요	-10.5483
▁이뻐	-10.5493
스토	-10.5494
▁사랑합니다	-10.5501
하실	-10.5507
50	-10.5509
뻔한	-10.551
▁귀여움	-10.5516
▁반전에	-10.5518
셔야	-10.5523
▁책으로	-10.5523
▁진지한	-10.5539
갖	-10.5544
▁덤	-10.5548
갈수록	-10.5551
▁각자	-10.5553
▁볼려고	-10.5554
▁땅	-10.5557
▁하나하나가	-10.5559
선수	-10.5561
잖	-10.5562
무엇	-10.5567
웠음	-10.557
달라	-10.5574
▁시대의	-10.5576
▁초반부	-10.5578
답게	-10.5579
사실	-10.5581
재미없어	-10.5584
▁잘만들	-10.5584
에비해	-10.5585
쯔	-10.5587
퀄	-10.5587
▁웰메이드	-10.5587
뱀	-10.5587
▁어두운	-10.5587
▁호기심	-10.5587
미스테리	-10.5587
▁혐오	-10.5587
▁못보겠다	-10.559
▁센스	-10.559
할수있는	-10.5591
▁극단적	-10.5591
▁상징	-10.5594
▁고뇌	-10.5595
▁강력	-10.5595
▁나무	-10.5596
특집	-10.5597
▁요새	-10.5597
▁교훈도	-10.5597
▁여친	-10.5601
▁억지감동	-10.5601
▁개똥	-10.5602
▁첨부터	-10.5605
▁고독	-10.5606
▁작품이라	-10.5607
▁동네	-10.5608
는거지	-10.5612
▁볼만합니다	-10.5617
▁적절한	-10.5617
▁무한	-10.5618
▁울면서	-10.5618
▁애매	-10.5618
▁예술영화	-10.5619
▁마니	-10.562
▁안보는게	-10.562
▁씹	-10.5624
▁느낌이다	-10.563
▁알았음	-10.5631
▁허무한	-10.5632
▁아진짜	-10.5633
▁잠시	-10.5639
안된다	-10.5639
하시고	-10.564
▁뜬금없는	-10.5644
▁형제	-10.5645
시간동안	-10.5648
▁기적	-10.5657
▁유치해서	-10.5659
▁반영	-10.5659
어리	-10.5663
▁무난	-10.5664
쁜	-10.5667
순위	-10.5667
민망	-10.567
앞	-10.5671
▁찾아서	-10.569
▁거기다	-10.569
▁나이가	-10.5695
▁아프다	-10.5697
잊	-10.5699
▁버려	-10.5704
ed	-10.5707
맹	-10.5709
코메디	-10.571
귀엽	-10.5711
TV	-10.5712
▁떨어져	-10.5712
꿀	-10.5715
선택	-10.5718
싶으면	-10.5718
▁제목을	-10.5718
보고싶어요	-10.5718
▁때마다	-10.5727
▁다신	-10.5728
▁돼지	-10.5729
안하고	-10.5732
▁전화	-10.5733
전혀	-10.5737
귀신	-10.5738
연기를	-10.5739
▁널	-10.5741
너무너무	-10.5744
▁류승범	-10.5746
랴	-10.5746
▁제시카	-10.5746
▁배급사	-10.5746
▁풋풋한	-10.5747
▁벗어나	-10.5747
▁빛나는	-10.575
▁보고싶어	-10.575
였네요	-10.5751
▁라스트	-10.5752
▁장애인	-10.5752
▁앉아	-10.5753
편집	-10.5754
답니다	-10.5755
▁절망	-10.5755
▁전체적인	-10.5758
▁남기	-10.5764
▁백인	-10.577
▁괜찮았음	-10.5771
▁마지막엔	-10.5772
▁싶었던	-10.5773
타고	-10.5777
해놓고	-10.578
므로	-10.5783
▁실감	-10.5787
시대에	-10.5793
▁드네요	-10.5797
브리	-10.5797
▁소재의	-10.5801
▁부족함	-10.5802
▁아동	-10.5806
처리	-10.5806
곳이	-10.5807
▁신인	-10.5811
▁별하나	-10.5815
am	-10.5817
들한테	-10.5817
▁무섭지	-10.5822
▁추천하고	-10.583
▁남성	-10.5834
▁만났	-10.5841
▁진한	-10.5842
보내	-10.5843
이예요	-10.5849
뻔했다	-10.585
▁밤에	-10.5856
▁않은데	-10.5858
▁배경으로	-10.5863
▁정신병	-10.5863
▁잘만들었다	-10.5866
볼까	-10.5867
▁ᄃᄃᄃ	-10.5881
에다가	-10.5882
같아요	-10.5889
웠던	-10.5889
▁장면들이	-10.5894
▁아무도	-10.5895
▁가족의	-10.5895
닫	-10.5906
렀	-10.5907
윌	-10.5907
뺏	-10.5907
▁놀랐다	-10.5907
뢰	-10.5907
룰	-10.5907
쟈	-10.5907
홈	-10.5907
닭	-10.5907
▁빨갱이	-10.5907
▁드디어	-10.5907
▁러브라인	-10.5907
▁엑소	-10.5907
▁쓸쓸	-10.5908
▁향수	-10.5912
▁그림체	-10.5913
확실	-10.5918
▁재미있었습니다	-10.5918
▁따뜻	-10.5922
▁대표	-10.5923
▁ᄌ	-10.5925
▁아만다	-10.5925
▁놀란	-10.5927
▁모르지만	-10.5929
▁재미있었음	-10.593
▁있었으면	-10.5931
▁다행이다	-10.5935
시장	-10.5936
▁거지같은	-10.5936
▁의도가	-10.5937
복수	-10.594
ᄏᄏᄏᄏᄏᄏ	-10.5942
▁괜찮아	-10.5942
▁장난아니	-10.5943
▁나을듯	-10.5944
꺼야	-10.5946
형제	-10.5949
▁인류	-10.5949
▁내리	-10.595
▁말아먹	-10.5952
해줄	-10.5952
지루하고	-10.5954
▁단편	-10.5955
▁빠져서	-10.5959
본적	-10.596
었지	-10.5961
▁감독과	-10.5968
▁그렇지만	-10.597
▁ᄡ	-10.5971
다큐	-10.5974
▁파리	-10.5974
▁여신	-10.5982
▁기대이하	-10.5983
▁보고나니	-10.5986
터짐	-10.5987
효과	-10.5991
▁그리워	-10.6005
->	-10.6006
▁괜찮게	-10.601
▁있기	-10.6013
▁소개	-10.6016
▁14	-10.6018
▁아담	-10.6024
▁때리	-10.6027
것같아	-10.6031
작이라	-10.6033
좋네요	-10.6039
▁빠지는	-10.6042
▁자기가	-10.605
▁인상적인	-10.605
▁유지	-10.6053
살인	-10.6058
있으면	-10.606
▁옆에	-10.6065
역할	-10.6065
측	-10.6068
앵	-10.6069
덩	-10.6071
랙	-10.6071
셧	-10.6071
쉐	-10.6071
욤	-10.6071
▁박중훈	-10.6071
▁브루스	-10.6071
▁이병헌	-10.6071
셜	-10.6071
ᅢ	-10.6071
▁화장실	-10.6071
▁낭만	-10.6073
▁배꼽	-10.6074
했을때	-10.6075
주시	-10.6077
월드	-10.6078
▁창피	-10.6078
▁만들었을까	-10.6081
아아아	-10.6082
물론	-10.6082
▁드림	-10.6083
▁안본다	-10.6084
▁던져	-10.6086
거라고	-10.6088
▁괜찮고	-10.6093
▁진지하게	-10.6094
▁말하려는	-10.6094
▁군인	-10.6095
간에	-10.6098
겠는데	-10.6099
아닌가	-10.6104
▁나올때	-10.6106
맘에	-10.6106
▁재밌었던	-10.6106
▁보았던	-10.6106
▁하하	-10.6108
▁되는데	-10.6113
▁인디	-10.6114
▁깔끔한	-10.6117
▁연출력이	-10.6118
애들은	-10.6128
▁한다는	-10.6131
▁ᄒᄒᄒᄒ	-10.6138
외엔	-10.6142
▁와닿는	-10.6147
게만드는	-10.6152
▁망했	-10.6157
▁공감도	-10.6158
▁대사들	-10.6159
▁선사	-10.6159
▁작가의	-10.616
▁부러	-10.6161
당신	-10.6166
▁끝나서	-10.6168
장난치	-10.6169
편까지	-10.6174
것같네요	-10.6179
뭐지	-10.6183
▁잘한다	-10.619
▁이름을	-10.6193
▁생기	-10.6207
시키고	-10.6208
▁ᄒᄃᄃ	-10.6216
해줘서	-10.6221
▁인생은	-10.6227
▁도시	-10.6237
헉	-10.6238
▁EBS	-10.6238
띠	-10.6238
▁베드신	-10.6238
쯧쯧	-10.6238
▁박보영	-10.6238
▁무거운	-10.6238
▁하이틴	-10.6238
차승원	-10.6238
▁비행기	-10.6238
재미있다	-10.6239
▁어설프다	-10.6239
밖	-10.624
▁삭제	-10.624
▁언젠가	-10.6241
▁생각해보게	-10.6241
▁살다	-10.6242
▁분량	-10.6243
▁동영상	-10.6244
▁은근	-10.6245
▁쪼	-10.6253
▁개콘	-10.6253
합시다	-10.6253
▁암울	-10.6255
▁가족애	-10.626
▁미안하다	-10.6267
돈주고	-10.6268
▁앞서	-10.6274
▁극중	-10.6274
▁잃었	-10.6274
ᄏᄏᄏᄏᄏᄏᄏᄏᄏᄏᄏᄏ	-10.6277
▁망할	-10.6283
▁내돈	-10.6285
였다면	-10.6287
▁감동적이네요	-10.6288
▁조금은	-10.6289
▁신선함	-10.6289
같지	-10.629
▁같지	-10.6293
▁사랑하고	-10.6297
▁넘어가	-10.6297
▁사랑스럽다	-10.6298
있는영화	-10.6298
▁들어간	-10.6299
▁요소가	-10.6301
▁어이없다	-10.6304
먹었	-10.6309
곳에	-10.631
▁기대하지	-10.6315
▁보라고	-10.6318
▁살았	-10.6322
▁빠졌	-10.6324
▁뜬금없이	-10.6327
스릴	-10.633
▁날아	-10.6332
더군	-10.6333
▁계기	-10.6333
▁뭐임	-10.6335
▁신비	-10.634
▁않았던	-10.6344
후반	-10.6351
▁공포를	-10.6354
▁하나님	-10.6377
▁정도가	-10.6379
▁캐릭터들이	-10.6381
▁드라마입니다	-10.6383
▁것들이	-10.6383
년대에	-10.6389
쟁	-10.6391
광구	-10.6396
주제	-10.64
줘야지	-10.64
▁뭐하는	-10.6404
▁빼곤	-10.6406
뽀	-10.6407
。	-10.6407
▁흡입력	-10.6407
덮	-10.6407
쉴	-10.6407
툭	-10.6407
▁신하균	-10.6407
듦	-10.6407
렐	-10.6407
뤄	-10.6407
▁라이언	-10.6408
▁거부감	-10.6408
▁무간도	-10.6408
▁둘째치고	-10.6408
▁오글오글	-10.6408
▁예측	-10.6409
▁니콜	-10.641
▁도둑	-10.641
▁2012	-10.641
▁잃은	-10.6411
결국	-10.6413
▁부탁	-10.6414
▁말그대로	-10.6414
▁같았다	-10.6415
보고나서	-10.6419
▁고딩	-10.642
▁영원	-10.6426
▁흘러가는	-10.6426
▁무대	-10.6431
▁누나	-10.644
하나하나	-10.6445
비하	-10.6446
▁못본	-10.6448
점만점에	-10.6449
▁몰아	-10.645
▁언제까지	-10.645
스코	-10.6453
▁나오네	-10.6456
▁첨이다	-10.6456
▁순수하고	-10.6457
유발	-10.646
최고다	-10.6462
▁숨은	-10.6467
▁맞나	-10.6474
실력	-10.6475
겠어	-10.6481
ch	-10.6482
하고싶다	-10.6483
▁이거보다	-10.6487
중국	-10.6487
있네요	-10.6489
▁시작해서	-10.649
▁여인	-10.6495
▁뛰어넘는	-10.6496
▁보겠다	-10.6496
여배우	-10.6497
▁대학	-10.6501
하겠습니다	-10.6503
▁짜증나게	-10.6509
▁나와야	-10.651
▁미스	-10.6512
▁소장하고	-10.6515
▁화끈	-10.6516
▁미국식	-10.6521
분들은	-10.6527
ma	-10.653
▁및	-10.6531
▁요즘은	-10.6534
▁씁쓸하	-10.6535
▁베이	-10.6537
▁절로	-10.6545
도좋고	-10.6547
▁이상하다	-10.6549
▁답답하다	-10.6553
▁전문	-10.6556
▁다시보기	-10.6562
▁당연	-10.6564
▁조연들	-10.6566
틀리	-10.6567
멋잇	-10.6568
ᅩ	-10.6579
경찰	-10.6579
븐	-10.658
▁임창정	-10.658
램	-10.658
▁칭찬	-10.658
▁비호감	-10.658
▁워낙	-10.658
잊지못할	-10.658
▁향연	-10.658
▁감명깊게	-10.6581
▁역겹다	-10.6581
어수선	-10.6583
▁개봉당시	-10.6584
▁가히	-10.6585
▁따름	-10.6586
▁개그맨	-10.6586
것인가	-10.6587
▁엄청나게	-10.6587
▁낫겠다	-10.6587
▁부활	-10.6589
▁에효	-10.659
▁아파	-10.6591
▁혼란	-10.6591
▁좋겠습니다	-10.6591
▁마시길	-10.6591
돈아깝	-10.6593
▁기괴	-10.6594
립니다	-10.6596
▁꼭보세요	-10.6598
▁러브	-10.6606
▁재미있었는데	-10.6608
▁한순간	-10.6609
▁비슷하	-10.6612
지루해	-10.6612
▁멋지게	-10.6625
ic	-10.6628
▁아니잖아	-10.6628
▁쩌는	-10.6632
▁만점에	-10.6636
셨으면	-10.6637
sh	-10.6639
싫다	-10.6641
▁캐릭터를	-10.6643
못함	-10.6644
▁한번더	-10.6652
▁실망스럽	-10.6652
았으면	-10.6654
▁사람들을	-10.6657
▁H	-10.666
▁쏘	-10.6663
▁했더니	-10.6665
▁맡은	-10.6666
▁극장에	-10.6667
▁연상	-10.6679
인걸	-10.6685
▁코믹영화	-10.6689
거에요	-10.669
▁새벽	-10.6694
▁볼것	-10.6701
보임	-10.6708
▁입장	-10.671
▁말고는	-10.6724
▁가능성	-10.6727
▁어디로	-10.6736
▁의문이	-10.6736
맞음	-10.6741
▁모습은	-10.6743
▁최악의영화	-10.6747
프로그램	-10.6754
▁역사에	-10.6754
▁최고네요	-10.6754
맺	-10.6755
▁디카프리오	-10.6755
▁재밌게봤어요	-10.6755
밧	-10.6755
퉤	-10.6755
▁스타워즈	-10.6755
▁왕조현	-10.6755
팩	-10.6755
▁도데체	-10.6755
▁스타뎀	-10.6756
▁여배우들	-10.6757
▁소름끼치는	-10.6757
▁나타나	-10.6758
▁격투	-10.6758
▁케미	-10.6758
▁J	-10.6758
▁그려낸	-10.6759
▁묘한	-10.6759
▁로빈	-10.6761
▁시도는	-10.6762
▁재미없었	-10.6764
예술	-10.6764
▁중학생	-10.6767
▁연기력에	-10.6769
빠져	-10.677
▁마리	-10.677
허무	-10.6775
▁귀여워요	-10.6778
▁다운받아서	-10.6782
▁어우	-10.6782
▁소통	-10.6784
▁어이없음	-10.6797
까봐	-10.6797
▁당신이	-10.6798
어야지	-10.6798
▁부산	-10.6799
▁안나온다	-10.68
▁독특하고	-10.6802
un	-10.6803
▁분장	-10.6805
▁탐	-10.6808
▁말투	-10.6814
▁있으나	-10.6818
▁넘넘	-10.6822
▁형편없는	-10.6828
시킬	-10.683
▁있긴	-10.6834
하하하하	-10.6837
▁이딴영화	-10.6838
▁웃기는	-10.6842
▁원하는	-10.6847
▁한시간	-10.6848
▁슬픈영화	-10.6851
▁뭐라고	-10.6857
▁귀여	-10.6861
▁않으	-10.6861
이랄까	-10.6862
▁있었고	-10.6865
비추	-10.6866
▁별로였다	-10.6871
▁구분	-10.6873
▁뭐여	-10.6874
▁빈약	-10.6875
텐	-10.6881
▁상어	-10.6882
▁충분한	-10.6891
▁들게	-10.6895
났음	-10.6895
▁막판	-10.6897
▁싶어서	-10.69
▁정체	-10.6901
▁두시간	-10.6902
▁잠을	-10.6908
▁부담	-10.6909
맞아	-10.6912
▁힘을	-10.693
버렸네	-10.6933
앨	-10.6934
▁뒤죽박죽	-10.6934
▁비쥬얼	-10.6934
▁살렸다	-10.6934
▁시종일관	-10.6934
▁알파치노	-10.6934
쌓	-10.6934
혔	-10.6934
▁객관적	-10.6934
▁브래드	-10.6934
▁아기자기	-10.6934
▁여러모로	-10.6934
com	-10.6934
▁한효주	-10.6934
▁일주일	-10.6934
▁미스캐스팅	-10.6934
▁케빈	-10.6934
▁킬러	-10.6934
땡	-10.6935
▁스파이	-10.6935
▁더러워	-10.6936
빼곤	-10.6938
▁돈아까워	-10.6939
▁오로지	-10.6939
시청률	-10.6939
▁감동적이에요	-10.6939
▁소름돋는	-10.6939
그나마	-10.694
판타지	-10.694
우리나라	-10.6942
▁살아야	-10.6943
는것을	-10.6944
나왔으면	-10.6946
▁속았다	-10.6949
▁모욕	-10.6952
엇음	-10.6954
▁있겠	-10.6958
▁최후	-10.6961
▁미스터리	-10.6963
▁작화	-10.6963
▁글을	-10.6965
▁감명	-10.6965
▁돋보였	-10.6968
주기도	-10.6968
▁이별	-10.6968
▁입장에서	-10.697
▁오글거리는	-10.6973
▁말인가	-10.6975
▁가짜	-10.6976
▁아버지의	-10.6978
여주인공	-10.698
으시	-10.6981
▁울었	-10.6984
▁본것	-10.6985
▁아이들에게	-10.6987
▁최고라고	-10.6987
겨울	-10.6987
▁공유	-10.6989
있었는데	-10.699
▁되야	-10.6993
ᄃᄃᄃ	-10.6993
미화	-10.6994
느냐	-10.6996
▁완벽하다	-10.6998
▁잼있네요	-10.7
안되고	-10.7
지루하다	-10.7
▁삶과	-10.7003
이후로	-10.7004
▁타란티노	-10.7004
▁다시금	-10.7007
▁말밖에	-10.7011
▁방해	-10.7014
▁시기	-10.7016
스틱	-10.7017
▁건질	-10.7025
▁지키	-10.7031
▁전편보다	-10.7034
▁그런거	-10.7037
▁불과	-10.7039
▁만화영화	-10.704
▁가시	-10.7042
성우	-10.7043
졌으면	-10.7044
하더니	-10.7052
▁범죄자	-10.7058
기술	-10.7059
아니고	-10.7059
▁읽는	-10.706
▁싫어하는	-10.7068
점주기도	-10.707
▁재미없네요	-10.7074
▁노인	-10.7078
▁흉내	-10.7079
▁단점	-10.7083
▁것인가	-10.7084
▁됐다	-10.7092
▁프랑스영화	-10.7093
녕	-10.7095
버스	-10.7107
거같아	-10.7109
됫	-10.7115
렛	-10.7115
캡	-10.7115
▁바탕으로	-10.7116
▁아마추어	-10.7116
▁펼쳐	-10.7116
▁김수현	-10.7116
▁닥치고	-10.7116
▁혁명	-10.7117
▁보지마셈	-10.7117
▁엽기	-10.7117
▁픽사	-10.7119
▁직업	-10.712
▁억지스럽고	-10.712
▁오래전에	-10.7121
▁말씀	-10.7126
▁보여줄	-10.7134
었구나	-10.7135
▁살리지	-10.7135
어떤	-10.7136
아무	-10.7137
해야하나	-10.7137
▁장난하나	-10.7138
▁다른영화	-10.7141
▁충분하다	-10.7144
▁믿음	-10.7144
였구나	-10.7149
각본	-10.715
▁역사상	-10.7151
▁충격적인	-10.7152
▁산만하고	-10.7156
▁사랑스럽고	-10.7157
▁미녀	-10.7158
▁만들어라	-10.7163
▁당장	-10.7164
▁옛날영화	-10.7167
께요	-10.7171
▁준비	-10.7172
▁보는것	-10.7176
▁모르겠네	-10.7179
▁위트	-10.718
▁movie	-10.718
▁우선	-10.7183
▁불쌍하	-10.7188
▁멋져	-10.7189
▁받았다	-10.7191
▁아이들의	-10.7196
▁만들다	-10.7197
▁사회적	-10.7203
▁난해한	-10.7207
▁알게되	-10.7219
못해	-10.7221
▁스릴러물	-10.7222
되길	-10.7224
본거	-10.7225
▁왔습니다	-10.723
망작	-10.7237
▁철학적	-10.7244
▁대부	-10.7249
▁보아도	-10.7251
▁세상에서	-10.7254
▁욕먹	-10.726
▁살아있는	-10.7266
▁느껴지지	-10.7269
▁팬들	-10.727
수밖에	-10.7275
행위	-10.728
▁선동	-10.7284
▁이도저도	-10.7285
▁긴장감을	-10.7286
삭	-10.7286
▁흥미를	-10.7294
둑	-10.7298
▁미소가	-10.7298
보던	-10.7299
덧	-10.7301
▁강동원	-10.7301
▁섬세한	-10.7301
▁섬뜩	-10.7301
▁극혐	-10.7302
▁그럴싸	-10.7302
▁승부	-10.7303
▁풀어낸	-10.7305
클라라	-10.7306
▁좋으나	-10.7309
▁에라이	-10.7313
▁상황이	-10.7313
▁로망	-10.7315
나올때	-10.7316
▁애잔	-10.7317
▁못하겠다	-10.732
샘	-10.732
▁울었어요	-10.7321
얼마나	-10.7321
떼	-10.7321
댓글	-10.7322
ost	-10.7326
▁뻔한스토리	-10.7327
병맛	-10.7329
▁흥분	-10.7332
us	-10.7333
▁비교해	-10.7333
▁조낸	-10.7333
▁또보고싶	-10.7336
▁보고있는데	-10.7336
살때	-10.7338
▁사람에게	-10.734
▁학생들	-10.7343
잼씀	-10.7347
▁아까워서	-10.735
▁자극적이	-10.7352
▁조금만	-10.7353
▁나열	-10.7359
형사	-10.736
▁어쩌다	-10.7363
속으로	-10.7363
자꾸	-10.7378
알고	-10.7378
싶은데	-10.7389
la	-10.739
▁좋아하지만	-10.7395
믿고	-10.7404
투성이	-10.7404
▁낮은지	-10.7406
영활	-10.7413
그저	-10.7418
▁심하다	-10.7422
만드나	-10.7432
아까운영화	-10.7434
▁나머지는	-10.7436
▁상황을	-10.7439
할뻔	-10.7441
▁똑같이	-10.745
▁잘생겼	-10.745
▁알리	-10.746
ᄏᄏᄏᄏᄏᄏᄏ	-10.7462
그대로	-10.7466
재밋다	-10.747
▁이것보다	-10.747
긴했지만	-10.7471
야말로	-10.7473
재밌고	-10.7473
닮	-10.7474
돌려	-10.7474
▁올라가	-10.7475
▁재치	-10.7479
▁고마	-10.748
▁후하게	-10.7482
싹	-10.7482
▁아무튼	-10.7485
뷰	-10.7486
▁캐릭	-10.7489
솜	-10.7489
펜	-10.7489
넬	-10.7489
▁엔딩크레딧	-10.7489
▁유치찬란	-10.7489
샌	-10.7489
쏴	-10.7489
퀸	-10.7489
▁마찬가지	-10.7489
▁클래식	-10.7489
▁납득	-10.7489
▁떡밥	-10.7489
▁원숭이	-10.7489
▁두고두고	-10.749
▁ᄌᄂ	-10.749
▁레옹	-10.7492
▁민족	-10.7492
제일	-10.7492
겼다	-10.7494
▁방향	-10.7495
▁중년	-10.7495
▁쉬운	-10.7497
▁시험	-10.7498
▁실사	-10.7502
▁세계관	-10.7504
▁모자라	-10.7506
▁한심하다	-10.7511
폴	-10.7516
당하고	-10.7517
▁비록	-10.7517
▁웃었다	-10.7518
로맨스	-10.7519
▁현실은	-10.7523
▁매번	-10.7524
▁남아있	-10.7524
▁당신의	-10.7525
않는다	-10.7529
누님	-10.753
저런	-10.7534
▁세월이	-10.7535
▁아이유	-10.7537
짜릿	-10.7538
점이나	-10.7539
▁망쳐놓	-10.7541
▁미쳐	-10.7542
▁우린	-10.7546
▁화질	-10.7553
어쩌	-10.7555
롭게	-10.7558
▁고문	-10.7558
▁나음	-10.7559
▁is	-10.7566
▁소유	-10.7571
▁뻔하다	-10.7572
그런데	-10.7573
▁관심이	-10.7576
▁행복하게	-10.7577
버린다	-10.7578
^^;	-10.7579
▁한가지	-10.7579
▁무섭게	-10.758
하길래	-10.7587
말이필요없	-10.7589
▁뻔뻔	-10.7589
진행	-10.7591
▁안나오는	-10.7593
▁완성	-10.7598
▁귀여웠	-10.7599
리스트	-10.7599
▁티비로	-10.7603
▁잔인함	-10.7606
거든	-10.7612
▁넘어서	-10.7615
▁천사	-10.7628
소년	-10.7632
▁상업	-10.7638
!!!!!!!!	-10.7644
실화	-10.7649
▁믿어	-10.7653
▁잼없다	-10.7657
재밋엇	-10.7661
좀비	-10.7667
▁남는게	-10.7674
륜	-10.7677
▁장진	-10.7678
만족	-10.7679
뜬	-10.768
낯	-10.7681
멈	-10.7682
덴	-10.7682
▁즐거움	-10.7682
숀	-10.7682
왈	-10.7682
뜸	-10.7682
츄	-10.7682
팽	-10.7682
핫	-10.7682
▁아쉬울	-10.7682
▁감성팔이	-10.7682
드려요	-10.7682
▁온갖	-10.7683
▁무의미	-10.7684
▁4.44	-10.7686
▁돌아보게	-10.7686
▁잔잔함	-10.7688
즐겁	-10.7688
▁언어	-10.7689
페이스	-10.7689
▁재앙	-10.769
봣어요	-10.7696
뒤에	-10.7697
▁될수	-10.7698
ᄀᄀ	-10.77
▁개꿀잼	-10.77
▁의도는	-10.7701
분짜리	-10.7703
▁지옥	-10.7704
▁괜찮았던	-10.7704
썼	-10.7706
▁예수	-10.7707
▁자연스럽게	-10.7711
▁살아남	-10.7711
▁싶습니다	-10.7712
▁이만한	-10.7713
▁마시	-10.7713
▁재방	-10.7716
덕분에	-10.7716
낭비	-10.7716
달라고	-10.772
결혼	-10.7721
▁영화라지만	-10.7723
방에서	-10.7727
▁커서	-10.7729
▁보게되는	-10.7734
줘요	-10.7736
죽이고	-10.7737
▁괜찮네요	-10.774
▁눈으로	-10.774
구역	-10.7748
▁인생영화	-10.7751
▁맞다	-10.7754
▁원작과	-10.7755
▁조잡한	-10.7757
로서는	-10.7765
▁스파이더맨	-10.7765
▁이거보단	-10.7766
충격	-10.7776
▁일반인	-10.7776
▁아쉬워요	-10.7791
국민	-10.7793
됬다	-10.7793
▁진부하	-10.7795
내려	-10.7797
여야	-10.7819
▁캐리	-10.7825
▁전기	-10.7826
내리	-10.7835
▁별거	-10.7835
▁들어서	-10.7842
▁짤	-10.7845
▁실망이다	-10.7847
▁두명	-10.7847
하더라도	-10.7848
▁끝날	-10.7848
삼류	-10.7851
▁배우분들	-10.7854
지마세요	-10.7864
답다	-10.7866
략	-10.7871
감명깊	-10.7877
▁안타까움	-10.7878
☆	-10.7878
잣	-10.7878
▁점수준것들	-10.7878
짙	-10.7878
▁머릿속	-10.7878
▁김혜수	-10.7878
▁피아노	-10.7878
▁애초에	-10.7878
▁기발한	-10.7878
▁명성에	-10.7878
누구	-10.7879
▁상큼	-10.7879
▁로맨틱코미디	-10.7881
▁잼있는	-10.7881
▁필요한가	-10.7881
▁방황	-10.7882
무서울	-10.7883
▁아니라면	-10.7887
감동받	-10.7887
▁감동적입니다	-10.789
▁태국	-10.789
▁얻어	-10.7891
▁제작비가	-10.7896
▁느껴질	-10.79
▁짱이다	-10.7902
▁ᄏᄏᄏᄏᄏᄏᄏᄏᄏᄏᄏᄏᄏᄏ	-10.7907
▁못봐주겠	-10.7908
더라고요	-10.791
▁많네	-10.7914
▁한동안	-10.7919
쩝	-10.792
할수없는	-10.792
멀	-10.792
애니메이션	-10.7921
레인	-10.7927
▁느껴졌다	-10.7928
왠	-10.7929
▁웃겼다	-10.7929
▁비참	-10.793
▁오그라들	-10.7931
▁채워	-10.7933
릴때	-10.7949
현실적	-10.795
▁가르	-10.7952
수작	-10.7955
▁거슬	-10.7958
▁외국인	-10.7959
지않게	-10.7959
피디	-10.7961
하였다	-10.7963
▁느끼고	-10.7963
마저도	-10.7963
▁있었음	-10.7963
▁없던	-10.7967
ve	-10.7974
▁나왔던	-10.7975
▁후반부에	-10.7977
▁뛰어넘	-10.7978
▁신화	-10.7984
▁발음	-10.7996
주었다	-10.7998
▁낚인	-10.7999
▁짱구	-10.8002
떨어지	-10.8008
좋은데	-10.8012
좋겠	-10.8018
없었	-10.8023
▁알려주는	-10.8025
▁열라	-10.8039
123	-10.8042
▁눈치	-10.8044
끝나고	-10.8046
▁자연스럽	-10.8047
▁짜증났	-10.8047
호러	-10.805
동화	-10.8053
▁나오기	-10.806
분정도	-10.8062
▁알아야	-10.8063
▁무엇이	-10.8074
졌음	-10.8076
▁킬링	-10.8078
팝	-10.8078
▁뒤늦게	-10.8078
▁어정쩡	-10.8078
▁오랫동안	-10.8078
꽁	-10.8078
뻑	-10.8078
쭈	-10.8078
랏	-10.8078
▁데이빗	-10.8078
▁오그라드는	-10.8078
▁바란다	-10.8079
▁수면제	-10.8079
흑흑	-10.8079
ter	-10.808
▁전성기	-10.808
▁자연스러운	-10.8082
▁멋짐	-10.8082
vs	-10.8083
분들께	-10.8085
ne	-10.8085
▁내취향	-10.8088
▁처음본다	-10.8099
▁재밌었습니다	-10.8104
▁담고	-10.8106
▁웃음을	-10.8112
학년때	-10.8119
▁보고싶은데	-10.812
올린	-10.8121
▁완벽하게	-10.8126
▁또라이	-10.8127
빠짐	-10.8127
▁봐주	-10.8132
▁고증	-10.8132
▁안나옴	-10.8133
▁빠져들게	-10.8137
학원	-10.8139
▁모든것이	-10.8144
넘치는	-10.8145
▁도와	-10.8147
▁안되네	-10.8149
▁의미있는	-10.815
▁역작	-10.8157
▁화끈한	-10.8158
추격	-10.8161
▁밋밋한	-10.8163
▁답답해	-10.8164
▁막상	-10.8165
치면	-10.8168
▁못만들	-10.8177
했어도	-10.8178
재밋음	-10.8179
▁잠들	-10.8182
있었던	-10.8183
올려	-10.8188
▁웃겼	-10.8193
▁부족하고	-10.8196
할려고	-10.8197
~~~~~~~	-10.82
▁글고	-10.8211
▁본격	-10.8212
▁무협영화	-10.8212
빠르	-10.8231
으러	-10.8233
▁전율	-10.8238
▁심오	-10.8239
보려고	-10.824
깐	-10.8248
시키지	-10.8254
지르고	-10.8255
보려	-10.8257
하지않고	-10.8257
것들이	-10.8259
놈은	-10.826
▁대박이다	-10.8271
▁아무나	-10.8272
▁독립	-10.8273
▁허허	-10.8277
▁니들이	-10.8279
뻔함	-10.8279
혐	-10.828
아까워	-10.8281
뎀	-10.8281
들끼리	-10.8282
▁흘렸	-10.8282
▁bad	-10.8282
▁고등학생	-10.8282
▁런닝타임	-10.8282
▁크레딧	-10.8282
뚫	-10.8282
좆	-10.8282
쩍	-10.8282
▁세련된	-10.8282
▁엄정화	-10.8282
▁짬뽕	-10.8282
▁한석규	-10.8282
아카데미	-10.8282
▁스페인	-10.8282
▁완젼	-10.8282
▁no	-10.8282
▁찬양	-10.8286
▁닮았	-10.8287
▁억지스런	-10.8289
▁사이코	-10.8291
▁듣는	-10.83
▁멋있고	-10.8301
▁진행되는	-10.8301
▁정리	-10.8301
▁빠질	-10.8301
▁복선	-10.8303
▁환장	-10.8304
▁한사람	-10.8311
▁채우	-10.8311
▁마블	-10.8315
et	-10.8316
▁브레	-10.8318
▁느낀다	-10.8319
어른	-10.832
하겠지만	-10.8322
▁봐줄만	-10.8324
▁당연한	-10.8325
▁최고에요	-10.8328
▁있겠지만	-10.8331
▁주온	-10.8335
▁모방	-10.8336
▁불쌍해	-10.8339
▁웃겨서	-10.8339
▁않습니다	-10.8342
첫	-10.8342
옛날	-10.8342
▁받아야	-10.8343
▁커버	-10.8344
id	-10.8345
초딩	-10.8347
철학	-10.8352
▁얘기를	-10.8352
남주	-10.8354
폭력	-10.8354
▁제대로된	-10.8356
▁다가오	-10.8358
구먼	-10.836
왔던	-10.8361
▁상업영화	-10.8363
에휴	-10.8363
지못한	-10.837
▁정체성	-10.8371
▁낮네요	-10.8373
소름	-10.8378
▁현실적이고	-10.8383
▁편하게	-10.8387
▁니네	-10.8389
45	-10.8391
▁진부하다	-10.8395
할정도로	-10.8395
보러	-10.8399
▁부인	-10.8401
▁본능	-10.8406
▁의해	-10.8406
▁감독에게	-10.8407
될까	-10.8409
▁안보면	-10.841
av	-10.8412
▁지경	-10.8423
▁꿈과	-10.8425
▁17	-10.843
같애	-10.8435
▁아까웠	-10.8436
▁그이상	-10.8448
작가님	-10.8451
심각	-10.8457
부리	-10.8474
어설프	-10.8486
랍	-10.8487
▁일깨워	-10.8488
냄	-10.8489
썰	-10.849
ᄊ	-10.849
ᄐ	-10.849
▁호불호가	-10.849
쇄	-10.849
****	-10.849
▁그냥저냥	-10.849
륵	-10.849
믄	-10.849
▁팝콘	-10.849
▁설경구	-10.849
▁나루토	-10.849
▁가슴아프	-10.849
▁원피스	-10.849
▁드니로	-10.849
▁후속편	-10.849
▁보낸다	-10.849
▁귀찮	-10.8492
어지럽	-10.8493
▁호흡	-10.8493
▁말이필요없다	-10.8495
▁생존	-10.8496
차원	-10.8499
▁간직	-10.8501
▁시골	-10.8504
▁제작자	-10.8505
▁초반엔	-10.8508
▁멋져요	-10.8509
▁거짓	-10.8512
▁개인적인	-10.8512
▁가족과	-10.8512
▁두개	-10.8513
▁바라는	-10.8515
▁되었습니다	-10.8518
▁심장이	-10.8519
▁감정선	-10.8522
됬는데	-10.8522
▁성형	-10.8524
▁극본	-10.8529
▁이런식으로	-10.8531
▁역사적	-10.8531
ie	-10.8533
▁미학	-10.8535
▁시체	-10.8535
▁훌륭하	-10.8538
▁기대된다	-10.854
▁멜로영화	-10.8541
보길	-10.8544
▁저리	-10.8547
▁않아요	-10.8551
▁갖게	-10.8553
회부터	-10.8553
??????	-10.8553
옷	-10.8554
▁좋더라	-10.8558
▁물어	-10.8559
것같음	-10.8559
갑자기	-10.8559
촬영	-10.856
암튼	-10.8562
높아	-10.8563
▁쓰러	-10.8565
▁재수없	-10.8567
▁구조	-10.8575
▁회사	-10.8575
▁점에서	-10.858
▁기대했던	-10.858
70	-10.858
▁16	-10.858
▁상처를	-10.8582
▁이어지는	-10.8583
좋아하는데	-10.8596
아닌데	-10.86
▁높지	-10.8606
▁첨으로	-10.8608
있다면	-10.8609
▁만들었으면	-10.8612
▁가야	-10.8613
볼때	-10.8616
아직	-10.8621
때문이	-10.8623
▁안가는	-10.8624
▁남아있는	-10.8627
▁해외	-10.8629
▁즐겨	-10.8636
점주고	-10.8645
▁일본에서	-10.8645
레기	-10.8649
포드	-10.8657
▁시청자들	-10.8658
▁정부	-10.866
▁간지	-10.8662
▁나오네요	-10.8662
▁출연자	-10.8665
▁거기	-10.8667
▁웃기기	-10.8669
룬	-10.8684
▁힘들어	-10.8696
댓	-10.8701
콤	-10.8701
랍니다	-10.8702
Y	-10.8703
▁박찬욱	-10.8703
▁아이언맨	-10.8703
▁에드워드	-10.8703
▁영웅본색	-10.8703
▁테이큰	-10.8703
숲	-10.8703
▁2.22	-10.8703
턱	-10.8703
▁정주행	-10.8703
▁김희선	-10.8703
▁어딘가	-10.8703
▁흥미롭게	-10.8705
▁슈퍼맨	-10.8707
▁공룡	-10.8709
▁새삼	-10.8709
▁러닝타임이	-10.8711
갠	-10.8711
하려면	-10.8713
▁이하도	-10.8716
▁연습	-10.8717
▁경악	-10.8718
▁심각하게	-10.8718
▁반갑	-10.8719
▁히어로물	-10.872
▁거기서	-10.8721
▁감동적이었다	-10.8722
▁액션물	-10.8724
▁긴장감과	-10.8725
▁동화같은	-10.8726
▁광기	-10.8726
▁게스트	-10.8728
▁믿는	-10.8732
없는데	-10.8732
▁귀여워서	-10.8733
▁회상	-10.8733
뭔지	-10.8738
▁강추합니다	-10.8742
▁흉내내	-10.8747
▁어린아이	-10.8748
▁만들어야	-10.8749
▁만들었냐	-10.875
▁말았다	-10.8754
▁대역	-10.8759
한국영화	-10.8762
▁봐야한다	-10.8763
▁전율이	-10.8764
▁피식	-10.8767
그녀	-10.8769
▁몰입하게	-10.8769
▁있어보이	-10.877
▁편인데	-10.877
주고싶은	-10.8772
▁구경	-10.8772
▁연주	-10.8773
▁싶음	-10.8774
깜	-10.8777
▁포함	-10.8777
▁우리에게	-10.8778
앞에	-10.878
무서운	-10.8781
오랜만에	-10.8782
▁허구	-10.8786
전체	-10.8786
▁걸작이다	-10.879
▁세월	-10.8792
▁최고최고	-10.8799
▁안봐서	-10.8805
▁머냐	-10.8806
:)	-10.8808
었을텐데	-10.8824
▁머야	-10.8829
공부	-10.883
입장	-10.8832
▁다시봤는데	-10.8835
▁다름	-10.8837
de	-10.8852
잇엇	-10.8857
▁무기	-10.8861
남기는데	-10.8865
▁못했던	-10.8871
웃긴	-10.888
잘못	-10.888
민호	-10.8884
el	-10.8885
▁망쳐	-10.8889
▁적절	-10.8892
▁이딴게	-10.8894
▁싶다면	-10.8898
순수	-10.8901
▁오랜	-10.8903
보기엔	-10.8908
▁반감	-10.8909
드리고	-10.892
밍	-10.892
넷	-10.892
늬	-10.892
▁송승헌	-10.892
릅	-10.892
▁군더더기	-10.892
즉	-10.892
▁손예진	-10.892
▁어차피	-10.892
▁권상우	-10.892
▁오페라	-10.892
▁외로움	-10.8921
▁흠잡을	-10.8921
▁왕가위	-10.8921
점준것중	-10.8921
▁심리묘사	-10.8921
▁엠마	-10.8921
▁지겨워	-10.8921
▁어설프게	-10.8921
▁색채	-10.8923
땜시	-10.8924
▁낮추	-10.8926
ra	-10.8928
▁웃으며	-10.8929
▁재탕	-10.893
보지마라	-10.8931
▁반응	-10.8932
▁어울리	-10.8937
▁아깝습니다	-10.8941
▁소품	-10.8942
▁애정	-10.8943
▁힘들었다	-10.8944
강력추천	-10.8946
낫다	-10.8946
▁상식	-10.8948
▁웃다가	-10.895
▁우승	-10.8954
▁결국엔	-10.8956
▁알바생	-10.8957
▁한글	-10.8959
▁뜬금없	-10.8959
보신분	-10.8961
▁레오	-10.8965
▁이딴거	-10.897
▁만드냐	-10.8975
▁공연	-10.8982
▁인연	-10.8982
누가	-10.8983
▁여유	-10.8984
▁않으면	-10.899
▁경우	-10.899
▁벌어	-10.8992
▁면이	-10.8994
취향	-10.8995
▁지금보면	-10.8999
많고	-10.9001
킬링타임	-10.9004
▁남기는	-10.9008
더럽게	-10.9011
볼때마다	-10.9013
실패	-10.9014
▁전라도	-10.9015
▁자위	-10.9016
▁찍을	-10.9017
▁찍지	-10.9017
▁보이고	-10.9023
▁매주	-10.9023
▁찍으	-10.9024
▁나올까	-10.9029
장님	-10.9029
같네요	-10.9031
▁동감	-10.9033
평생	-10.9035
▁최고인듯	-10.904
크리	-10.9044
ri	-10.9048
▁나한테	-10.9054
▁자세	-10.9055
▁인식	-10.9061
▁허접하고	-10.9064
줄알고	-10.9068
없어요	-10.907
▁알려주	-10.9071
지루한	-10.9072
돌리	-10.9085
듣고	-10.9089
줄거리	-10.9095
▁싫은	-10.9096
년간	-10.9098
200	-10.9099
▁삶은	-10.9104
좋겠다	-10.9104
▁안봄	-10.9112
버그	-10.9112
▁본듯한	-10.9112
▁검색해	-10.9113
▁약한	-10.9115
▁말이필요	-10.9115
▁명작임	-10.9118
▁부분에서	-10.9123
괜	-10.9135
밋	-10.9137
▁세대	-10.9137
▁연기잘하	-10.9141
▁필요하다	-10.9142
▁카메론	-10.9143
▁가볍지	-10.9143
▁스필버그	-10.9143
넓	-10.9143
▁예뻐서	-10.9143
겠는가	-10.9143
▁깨달음	-10.9143
▁지극히	-10.9143
▁멘탈	-10.9143
▁나머진	-10.9143
▁픽션	-10.9143
▁아바타	-10.9143
스러울	-10.9143
보니깐	-10.9143
▁컬트	-10.9143
▁커녕	-10.9143
▁택시	-10.9144
▁가까이	-10.9144
▁절묘	-10.9145
><	-10.9145
▁2015	-10.9146
▁과장된	-10.915
할게요	-10.915
▁치료	-10.9152
▁지나가	-10.9153
싶네요	-10.9155
▁음향	-10.9156
▁번역	-10.9159
▁대사와	-10.9161
▁향한	-10.9164
▁기억난다	-10.9166
▁경계	-10.9168
▁모순	-10.9169
▁못따라	-10.917
억지스럽	-10.917
김구라	-10.9175
▁내시간	-10.9176
별점	-10.9186
보지마세요	-10.9187
▁로마	-10.9188
▁불쌍해서	-10.9188
▁일찍	-10.9188
테니	-10.9191
한텐	-10.9195
없었다	-10.9198
▁오직	-10.9201
▁-_-;;	-10.9216
▁느껴졌	-10.9219
▁전설이	-10.9221
▁정석	-10.9221
모델	-10.9223
큼	-10.9226
원주고	-10.9234
만든영화	-10.9239
마무리	-10.9239
▁비해서	-10.924
그래픽	-10.9242
잭	-10.9244
▁청년	-10.9244
입니까	-10.9244
tv	-10.9247
▁성적	-10.9248
▁외면	-10.9251
▁토니	-10.9251
왔습니다	-10.9252
▁당황	-10.9254
▁풀어내	-10.9257
▁스릴감	-10.9259
▁후반부로	-10.9259
▁없으니	-10.9261
▁우울한	-10.9263
▁먹어	-10.9265
되네	-10.9266
멋진	-10.9273
천재	-10.9276
▁확실하	-10.9276
따구	-10.9278
남매	-10.9278
▁영상미와	-10.928
▁흥미진진한	-10.9288
▁메세지를	-10.9303
▁밝혀	-10.9304
였네	-10.9308
▁없군	-10.9308
▁좋아하지	-10.9315
사장	-10.932
▁최악임	-10.9328
위주	-10.9336
▁십점	-10.9336
그림	-10.9343
▁바라보는	-10.9349
▁머리속	-10.935
▁시대적	-10.9352
했었다	-10.936
걷	-10.936
▁와닿지	-10.936
킥	-10.937
쇠	-10.937
▁겨울왕국	-10.937
▁봤는지	-10.937
▁소피마르소	-10.937
▁학창시절	-10.937
삘	-10.937
▁구혜선	-10.937
▁다이하드	-10.937
▁도라에몽	-10.937
▁싸이코패스	-10.937
▁엉망진창	-10.937
썬	-10.937
졋	-10.937
▁간간히	-10.937
▁김명민	-10.937
▁지저분	-10.937
▁최민수	-10.937
▁빠순이	-10.937
▁손색이	-10.937
▁총체적	-10.9371
▁뉴스	-10.9372
▁본방	-10.9374
습니까	-10.9375
▁흔적	-10.9377
▁저평가	-10.9378
떨어지는	-10.9378
▁욕나온다	-10.9379
▁열광	-10.938
▁커피	-10.938
▁국산	-10.9382
▁흥미롭지	-10.9383
설명	-10.9384
▁공허	-10.9387
원래	-10.9387
▁냉정	-10.9388
▁의견	-10.9389
▁인권	-10.9392
▁감동적임	-10.9394
사극	-10.9399
넘치고	-10.9403
▁처음이네	-10.9405
▁인간적으로	-10.9406
▁이은주	-10.9417
▁있었습니다	-10.9417
▁에로물	-10.9422
▁어디까지	-10.9422
▁아닌것	-10.9422
18	-10.9428
▁영향을	-10.9432
드립니다	-10.9434
▁끝남	-10.9438
▁좋아했던	-10.9438
▁이따위로	-10.9442
▁만든건지	-10.9444
궁금해	-10.9447
나보네	-10.945
▁빈약한	-10.945
▁훈훈하고	-10.9452
척하는	-10.9453
▁법정	-10.946
▁go	-10.9463
▁중국영화	-10.9471
▁약하다	-10.9473
편부터	-10.9476
아름다운	-10.948
▁아련한	-10.948
무서워	-10.9481
하구만	-10.9483
그때	-10.9484
셨다	-10.9485
쪽으로	-10.9494
팬이라	-10.9495
취급	-10.9501
▁의도를	-10.9501
선생님	-10.9508
엉성	-10.951
거같네요	-10.9514
▁형식	-10.9515
▁화가나	-10.9519
▁아픔을	-10.952
하죠	-10.9522
감상	-10.9522
꼬마	-10.9524
2005	-10.9525
대체	-10.9531
▁환상적	-10.9535
걸작	-10.9539
끝내	-10.954
▁돋보이	-10.9541
▁미안해	-10.9551
▁OOOO	-10.9552
▁식상하다	-10.9552
장군	-10.9552
▁가져다	-10.9552
▁등장하는	-10.9558
▁날리	-10.9559
▁감동입니다	-10.9559
몇번	-10.9567
▁보게되었	-10.9577
▁알게된	-10.9583
드릴	-10.9583
▁산만하	-10.9586
▁중학교	-10.9586
▁이런것도	-10.959
▁살인자	-10.9594
▁끄는	-10.9596
긍	-10.9602
곽	-10.9602
헨	-10.9602
▁기다렸	-10.9602
▁안타까웠	-10.9602
꾹	-10.9602
▁국어책	-10.9602
▁어쨌든	-10.9602
떳	-10.9602
쩡	-10.9602
▁웬만하면	-10.9602
▁콜린	-10.9603
▁틀림없	-10.9603
밑에	-10.9603
▁관람객	-10.9604
▁강아지	-10.9604
자막	-10.9606
▁람보	-10.9607
▁문득	-10.9607
▁각각	-10.9607
▁미친듯이	-10.9607
▁시간아까워	-10.9609
노출	-10.9609
▁출발	-10.9613
▁패션	-10.9613
-.-	-10.9614
▁재방송	-10.9614
▁중반부터	-10.9616
▁여태까지	-10.9616
▁뭐랄까	-10.9618
▁지루했음	-10.9621
▁이기적인	-10.9623
▁적극	-10.9625
▁안녕	-10.9627
▁고인의	-10.963
▁미술	-10.9631
▁재미없었음	-10.9631
▁당시엔	-10.9631
좋아서	-10.9632
▁신경쓰	-10.9632
▁보는동안	-10.9634
▁향기	-10.9637
▁없애	-10.964
▁기사	-10.9646
▁배울	-10.9654
▁네이버평점	-10.9663
▁파워	-10.9664
▁순진	-10.9664
▁믿을게	-10.967
▁기억남	-10.9674
▁흐르	-10.9676
▁개소리	-10.9684
혀서	-10.9696
▁야하지도	-10.97
▁죽일	-10.9701
것도아니고	-10.9707
▁장소	-10.971
짧	-10.9717
썩	-10.9722
잘봤습니다	-10.9723
▁베일	-10.9724
ᄉᄇ	-10.9725
▁통해서	-10.9725
네이버	-10.9727
▁재밋네요	-10.9727
싫	-10.9728
힘든	-10.973
중간에	-10.9732
▁고작	-10.9735
▁믿지	-10.9735
▁되어야	-10.9737
▁심오한	-10.9739
성룡	-10.9739
▁지금이나	-10.9745
▁마법	-10.9747
재밋어요	-10.9747
▁한계를	-10.9748
▁죽는다	-10.9749
않았다	-10.9758
끝날때까지	-10.9762
다시보고싶	-10.9774
ᄍᄍᄍ	-10.9783
ᄒᄒᄒᄒ	-10.9797
▁깨닫	-10.9813
▁안되나	-10.9823
▁태어나	-10.9824
즌	-10.9825
롯	-10.9835
▁호감	-10.9837
써요	-10.9838
읍	-10.9838
보신	-10.9838
흉	-10.984
헝	-10.984
▁엑스맨	-10.984
▁트랜스포머	-10.984
겸	-10.984
캠	-10.984
훗	-10.984
▁데뷔작	-10.984
▁원주율	-10.984
묶	-10.984
▁김민종	-10.984
▁힙합	-10.984
끓	-10.984
▁초중반	-10.984
뚜	-10.984
▁멈추	-10.9841
▁박평식	-10.9841
▁농담	-10.9841
▁전지현	-10.9841
▁갖춘	-10.9842
▁증명	-10.9842
파이팅	-10.9842
▁사라진	-10.9843
▁애국심	-10.9844
▁첫번째	-10.9844
▁안성기	-10.9845
▁퇴보	-10.9847
▁중후반	-10.9848
▁걸리	-10.9848
▁꺼져	-10.9851
▁신세계	-10.9851
▁빨간	-10.9851
▁데려다	-10.9852
▁피곤	-10.9852
▁허탈	-10.9852
▁아침드라마	-10.9852
▁러브스토리	-10.9854
▁모독	-10.9857
▁부각	-10.9863
▁터지는	-10.9865
▁돈아깝다	-10.9866
▁제왕	-10.9871
▁이따구로	-10.9872
▁더욱더	-10.9874
▁소중하	-10.9881
할정도	-10.9884
▁굉장한	-10.9885
웃겼음	-10.9888
▁정통	-10.989
▁자격	-10.9895
▁좋구	-10.9898
▁보고싶네요	-10.9902
영씨	-10.9906
▁적당하다	-10.9912
씩이나	-10.9922
▁많음	-10.9924
것들은	-10.9934
▁환상적인	-10.9934
▁명작이라고	-10.9934
▁당당	-10.9939
▁못하네	-10.9941
▁없을까	-10.9944
▁본적이	-10.9947
▁대학생	-10.9956
▁돌아오	-10.9957
작전	-10.9963
▁나올수	-10.9963
엇어요	-10.997
H	-10.9971
한마디로	-10.9973
특유의	-10.9973
유쾌	-10.9978
번이나	-10.9984
했더니	-10.9986
60	-10.9989
억울	-10.999
돈아까	-10.9995
▁이영화보고	-10.9999
▁보는사람	-11.0029
▁통쾌한	-11.004
설마	-11.0042
재미있음	-11.0047
▁인도영화	-11.0048
▁불쾌한	-11.0052
ck	-11.0058
년동안	-11.0059
▁듣기	-11.0069
▁운동	-11.0075
싼	-11.008
▁떠오르는	-11.0082
있을까	-11.0082
안좋	-11.0084
드래곤	-11.0084
뎁	-11.0084
^_^	-11.0084
▁MBC	-11.0084
▁시끄럽	-11.0084
▁신데렐라	-11.0084
▁톰크루즈	-11.0084
▁흐지부지	-11.0084
펠	-11.0084
▁정확히	-11.0084
줫	-11.0084
▁이탈리아	-11.0084
▁더더욱	-11.0084
▁사무라이	-11.0084
▁오우삼	-11.0084
▁최민식	-11.0084
▁흑역사	-11.0084
▁신세경	-11.0084
▁색다르	-11.0084
그나저나	-11.0084
찜찜	-11.0084
▁드래곤볼	-11.0084
▁어떠한	-11.0084
▁장동건	-11.0084
http	-11.0085
▁엽문	-11.0085
▁다니엘	-11.0085
꼬맹이	-11.0085
▁모자란	-11.0085
▁스킵	-11.0085
깁니다	-11.0085
▁아쉬웠지만	-11.0085
▁색깔	-11.0086
▁전도연	-11.0086
▁학살	-11.0086
▁깜놀	-11.0087
▁담담하	-11.0089
밖엔	-11.0089
▁이민기	-11.009
▁몰락	-11.0093
▁에릭	-11.0093
▁틀어주	-11.0095
▁복수극	-11.0097
▁지브리	-11.0097
▁태양	-11.0098
▁쏘우	-11.0099
▁남기고	-11.0099
▁백배	-11.0111
▁남친	-11.0114
▁초반부터	-11.0115
수가없다	-11.0124
▁울림	-11.0126
▁의미없는	-11.0126
▁임신	-11.0127
▁성경	-11.0131
▁잼나요	-11.0134
보였다	-11.014
타령	-11.0148
지않나	-11.0149
▁빠지게	-11.0151
▁좋아하시는	-11.0152
▁변신	-11.0152
▁추천한다	-11.0158
▁그시절	-11.0168
역활	-11.0169
닼	-11.0176
▁슬펐다	-11.0181
▁생각나게	-11.0183
필드	-11.0185
▁명작이네요	-11.0185
▁특이한	-11.0186
▁장난감	-11.0189
모르겠다	-11.0192
울리	-11.0201
▁엘리	-11.0204
▁재밌게봤는데	-11.0206
볼려고	-11.0208
▁만날	-11.0211
인것같다	-11.0218
▁낚였네	-11.0218
▁재밋어	-11.0222
눈물흘	-11.0222
▁따뜻함	-11.0223
▁남자배우	-11.0223
쫌	-11.0229
필름	-11.0235
싶어서	-11.0236
▁공포감	-11.0236
▁최하	-11.0239
▁아름다웠	-11.0255
▁잔인하고	-11.0262
키우	-11.0263
졌던	-11.0269
▁다시보게	-11.0275
유머	-11.028
하잖아	-11.028
▁영향	-11.0283
▁공감대	-11.0302
주의자	-11.0306
하시네요	-11.0307
ᄒᄒᄒᄒᄒ	-11.0308
섯	-11.0315
중딩	-11.0325
▁만세	-11.0329
딜	-11.033
믹	-11.0331
▁굳굳	-11.0331
▁잊혀	-11.0334
끗	-11.0334
풋	-11.0334
깡	-11.0334
▁니콜라스	-11.0334
쉣	-11.0334
▁늙었	-11.0334
▁인상깊게	-11.0334
딕	-11.0334
뼈	-11.0334
탠	-11.0334
펴	-11.0334
▁매끄럽지	-11.0334
▁어설퍼	-11.0334
▁엉터리	-11.0334
겄	-11.0334
▁미장센	-11.0334
▁황정민	-11.0334
▁키아누	-11.0334
습니당	-11.0334
▁완죤	-11.0334
▁윌리스	-11.0334
▁ᄇᄉ	-11.0334
▁함부로	-11.0335
▁의외의	-11.0335
▁잔잔하지만	-11.0335
▁일어날	-11.0335
▁이정재	-11.0335
▁best	-11.0335
▁8.5	-11.0336
▁보여줌	-11.0338
://	-11.0339
▁낚여서	-11.0339
▁비교하면	-11.034
▁짱짱맨	-11.0341
헌터	-11.0341
▁히트	-11.0343
▁극찬	-11.0344
십니다	-11.0346
▁실패작	-11.0348
▁오글거려서	-11.0348
▁2003	-11.0349
▁드문	-11.0349
▁노튼	-11.035
▁많은것을	-11.0351
점도아깝다	-11.0351
▁영광	-11.0352
▁한번씩	-11.0352
▁마틴	-11.0353
▁존잼	-11.0353
▁질문	-11.0355
▁유령	-11.0356
▁사람마다	-11.0358
▁단역	-11.0358
▁집단	-11.0359
▁탁월한	-11.036
▁카피	-11.0362
▁무슨말이	-11.0367
▁드물	-11.0367
연애	-11.0384
감성	-11.0401
▁아름다웠다	-11.0402
얘	-11.0404
졌어요	-11.0405
▁또봐도	-11.0407
is	-11.0413
할텐데	-11.0414
▁말아먹은	-11.0421
▁재밋는데	-11.0421
가아니라	-11.0427
▁담아	-11.0434
▁혼자서	-11.0456
▁날려	-11.0465
▁생각했던	-11.0466
▁심정	-11.0468
줄알았다	-11.0472
▁유치하기	-11.0477
▁결말까지	-11.0487
▁깔끔	-11.0487
점만점	-11.0488
▁재밌게본	-11.0491
귀여워	-11.0491
그렇지	-11.0492
개연성	-11.0493
히어로	-11.0494
페이지	-11.0495
▁조폭영화	-11.0498
cg	-11.0499
달리	-11.0507
영웅	-11.0508
▁밀어	-11.0512
▁다음편	-11.0521
▁진정성	-11.0524
▁허무함	-11.0528
▁마음속에	-11.0548
im	-11.0555
ᄃᄃᄃᄃ	-11.0562
전달	-11.0563
알바들	-11.0564
▁미스터	-11.0569
생겼	-11.0571
하기까지	-11.0573
퉁	-11.059
뱅	-11.059
밉	-11.059
밨	-11.0591
앜	-11.0591
윽	-11.0591
▁very	-11.0591
▁과대평가	-11.0591
▁윌리엄	-11.0591
뉘	-11.0591
벙	-11.0591
▁차태현	-11.0591
▁가슴아픈	-11.0591
▁정당화	-11.0591
▁징징	-11.0591
▁클라스	-11.0591
▁솔까	-11.0591
▁납치	-11.0591
▁젊음	-11.0592
▁찬사를	-11.0592
▁안타깝네요	-11.0592
▁사라져	-11.0592
▁경의를	-11.0594
▁죽기전에	-11.0595
징그러	-11.0595
▁상당한	-11.0596
▁돈낭비	-11.0596
▁고마운	-11.0597
▁썩어	-11.0598
▁태권	-11.0599
▁황금	-11.0601
▁장혁	-11.0602
▁우롱	-11.0603
노동자	-11.0609
▁필요없음	-11.0609
▁존스	-11.061
▁울었습니다	-11.061
▁재밌기만	-11.0612
▁우왕	-11.0615
▁알려준	-11.0616
▁재미나게	-11.0617
▁겉멋만	-11.0621
▁몰랐는데	-11.0623
▁슬퍼요	-11.0628
PD	-11.0629
▁나오다니	-11.063
▁재현	-11.063
▁기록	-11.063
남편	-11.0631
▁잼없음	-11.0632
▁다른사람	-11.0636
▁실화라는	-11.0636
클럽	-11.0639
▁슬프네요	-11.0642
▁하던가	-11.0644
으세요	-11.0648
▁답답해서	-11.0652
▁어케	-11.0655
▁재미있어서	-11.0658
작렬	-11.0659
▁좋아하네요	-11.0661
▁없었는데	-11.0663
▁꼭봐야	-11.0667
활동	-11.0667
▁사망	-11.0673
▁에러	-11.0679
하느라	-11.0686
갔으면	-11.0689
▁어색함	-11.0698
▁이해되	-11.0701
만들엇	-11.0705
▁꺼내	-11.0709
것같습니다	-11.0718
▁볼만한데	-11.0721
하지않은	-11.074
▁뽑아	-11.0744
▁더럽다	-11.0745
날때	-11.0749
볼껄	-11.0757
탐	-11.0761
저예산	-11.0763
겠냐	-11.0768
▁거슬리	-11.0778
▁모르나	-11.0788
변화	-11.0795
영상미	-11.0799
▁블루	-11.0819
▁아쉬워	-11.0839
뿔	-11.0845
낌	-11.0852
쎄	-11.0853
옵	-11.0854
▁다크나이트	-11.0854
럿	-11.0854
▁다세포소녀	-11.0854
▁홧팅	-11.0854
맷	-11.0854
빤	-11.0854
쏙	-11.0854
웰	-11.0854
코스프레	-11.0854
푼	-11.0854
▁끝판왕	-11.0854
릉	-11.0854
띵	-11.0854
▁아프리카	-11.0854
▁모성애	-11.0854
▁여기저기	-11.0854
▁임청하	-11.0854
▁타이틀	-11.0854
▁아이러니	-11.0854
▁레이첼	-11.0854
▁혹평	-11.0854
까말까	-11.0854
▁다운로드	-11.0855
▁사기꾼	-11.0855
▁노골적	-11.0856
▁크리스찬	-11.0856
▁재주	-11.0856
▁눈요기	-11.0856
▁특수	-11.0857
▁담백하	-11.0857
펙트	-11.0858
▁어딜	-11.0859
창있네	-11.0859
▁원작소설	-11.086
▁억지설정	-11.086
▁바꾼	-11.0861
▁성찰	-11.0861
였으나	-11.0863
▁2004	-11.0863
▁대표적인	-11.0864
▁이따구	-11.0866
되다니	-11.0869
▁제정신	-11.0869
▁요약	-11.0869
▁몇번이나	-11.087
▁긴박감	-11.0874
▁훈훈하	-11.0876
동물	-11.0878
▁직장	-11.0881
▁어렸을적	-11.0881
▁불행	-11.0882
울음	-11.0883
▁유혹	-11.0883
▁볼만했는데	-11.0885
▁분명히	-11.0887
▁존재하는	-11.0891
▁기독교인	-11.0895
겁니까	-11.0898
▁도중에	-11.0899
▁알겠지만	-11.09
▁그지같은	-11.0916
등급	-11.0916
▁재밌당	-11.0916
▁글쎄요	-11.0917
고싶지	-11.0919
합니까	-11.0921
조작	-11.0924
▁처음이네요	-11.0926
▁남발	-11.093
▁있나요	-11.0937
▁일본판	-11.0944
▁할배	-11.0945
▁무리수	-11.0945
▁해피	-11.0947
▁빌리	-11.0951
였다니	-11.0952
했냐	-11.098
별반개도	-11.098
▁외국영화	-11.0987
-_	-11.1003
▁되어서	-11.1006
▁주먹	-11.1006
▁오글거리	-11.1016
▁300	-11.1021
▁강제	-11.1025
▁좋아한다	-11.1032
해야한다	-11.1033
쭉	-11.1039
슬퍼	-11.104
왜이래	-11.104
▁끝날때	-11.1041
완벽	-11.1042
▁메리	-11.1045
아이돌	-11.1049
다시봐도	-11.1056
써서	-11.106
안돼	-11.1065
별루	-11.1067
▁배려	-11.1081
티비에서	-11.1084
마른	-11.1086
▁표정연기	-11.109
▁봐줄	-11.1105
뜬금	-11.111
이아니라	-11.1111
▁드러나	-11.1113
등등	-11.112
소름끼치	-11.1122
뜩	-11.1123
낄	-11.1124
둡	-11.1124
▁미야자키	-11.1124
▁송혜교	-11.1124
욬	-11.1124
펀	-11.1124
▁드림웍스	-11.1124
▁똑바로	-11.1124
▁인종차별	-11.1124
둬	-11.1124
핏	-11.1124
룸	-11.1124
켈	-11.1124
▁자본주의	-11.1124
▁절제된	-11.1124
▁어둡고	-11.1124
▁2013	-11.1124
나옵니다	-11.1124
▁태어난	-11.1124
▁한쿡영화	-11.1124
▁오인혜	-11.1124
▁정신나간	-11.1124
▁사로잡	-11.1125
▁감수성	-11.1125
▁짐승	-11.1125
▁7.5	-11.1126
▁모티브	-11.1127
ᄂᄂ	-11.1127
▁스토리라인	-11.1128
▁춤추	-11.1129
▁잃어	-11.1129
묘사	-11.113
▁휴먼	-11.113
▁감옥	-11.113
▁접근	-11.1132
▁가해자	-11.1132
▁지나친	-11.1133
▁출현	-11.1134
▁못생겼	-11.1135
▁토끼	-11.114
라이브	-11.1143
▁주관적	-11.1143
▁절반	-11.1143
▁확실한	-11.1143
▁총알	-11.1145
▁중간부터	-11.1145
▁떠들	-11.1147
따윈	-11.1148
▁대실망	-11.115
▁일탈	-11.1153
▁찾아볼	-11.1154
▁돋보인다	-11.1154
▁남자라면	-11.1155
▁울었던	-11.1165
▁예산	-11.1165
▁서극	-11.1165
▁건강	-11.1165
▁대단히	-11.1166
▁경제	-11.1171
▁없구나	-11.1172
▁슬프지만	-11.1173
▁초등학교때	-11.1175
▁발레	-11.1175
▁먹먹하다	-11.1176
▁나은듯	-11.1176
▁있겠지	-11.1176
▁오글거리고	-11.1177
제국	-11.1178
▁훌륭함	-11.1178
역겹	-11.1181
▁아까워요	-11.1194
▁예쁘게	-11.1195
▁철학적인	-11.1195
▁전락	-11.1196
est	-11.1199
▁강조	-11.1205
▁차마	-11.1213
느님	-11.122
▁부디	-11.1224
▁향해	-11.1231
▁마크	-11.1235
빼	-11.1259
▁지루하기만	-11.1259
▁나참	-11.126
▁재미있네	-11.1266
▁끊어	-11.1282
▁존재한다	-11.1285
▁솔직한	-11.1285
▁예술성	-11.1297
▁존재감	-11.1298
상관없	-11.1301
낚였	-11.1304
때메	-11.1323
챙겨	-11.1324
짓거리	-11.1325
--;	-11.1325
불륜	-11.1329
일수도	-11.1337
ol	-11.1356
떨어졌	-11.1364
줬으면	-11.1366
▁멋있어	-11.1371
지마시길	-11.1371
홍보	-11.1391
▁어린이들	-11.1396
챙	-11.1397
첩	-11.14
펑	-11.1402
zzz	-11.1402
↓	-11.1402
▁뮤직비디오	-11.1402
▁용두사미	-11.1402
▁팀버튼	-11.1402
▁파워레인저	-11.1402
mbc	-11.1402
▁송지효	-11.1402
▁클린트	-11.1402
▁뚝뚝	-11.1402
▁뜨거운	-11.1402
▁두려움	-11.1402
떄문에	-11.1402
▁뉴욕	-11.1402
▁성유리	-11.1402
언젠	-11.1402
▁깨달았	-11.1402
▁비정상	-11.1402
▁이연희	-11.1402
▁무너지	-11.1404
▁나쁘진	-11.1404
▁즐겁고	-11.1405
앵글	-11.1405
▁놀랬	-11.1406
배속으로	-11.1406
▁내인생최고의	-11.1406
▁초능력	-11.1407
아웃	-11.1407
▁비싼	-11.1407
▁비롯	-11.1407
▁사라졌	-11.141
왜이럼	-11.1412
▁틈이	-11.1416
▁넘어선	-11.1419
영화관에서	-11.1427
♡♡	-11.1428
▁볼만해요	-11.1434
▁중학교때	-11.1438
▁받아들이	-11.1438
▁현실적으로	-11.1438
부턴	-11.1439
▁첨이네	-11.144
것일까	-11.1441
▁사실적으로	-11.1446
이건뭐	-11.1448
스럽네	-11.1451
▁개독	-11.1454
▁부럽다	-11.1454
▁최고였습니다	-11.1454
▁터져	-11.1456
▁잠자	-11.1459
▁미국판	-11.1462
▁담아내	-11.1466
▁얘들	-11.1474
▁않았음	-11.1476
▁그지같	-11.1479
▁되었는데	-11.148
▁선동영화	-11.1483
약간	-11.1485
▁인간적인	-11.1489
▁좋았어	-11.1497
▁다시보고싶은	-11.1508
▁멀리	-11.1509
▁사랑스럽	-11.1513
라기보다	-11.1514
▁엉성함	-11.1522
▁끌려	-11.1533
하시면	-11.1537
녀석들	-11.1546
하고픈	-11.1547
▁불편함	-11.1564
▁기억될	-11.1572
▁허접하다	-11.1589
봣음	-11.1605
겐	-11.1611
핵	-11.1616
씹	-11.1619
톰	-11.1619
낙	-11.1619
꽝	-11.162
카메라	-11.162
진정한	-11.1624
이쁘고	-11.1624
흐름	-11.1625
시간낭비	-11.1625
되면서	-11.1625
릇	-11.1627
달까	-11.1628
조각	-11.1632
▁시간아깝	-11.1635
제작비	-11.1638
먼저	-11.1642
좋았어요	-11.1645
하더군요	-11.1651
▁so	-11.1652
훌륭한	-11.166
▁다니는	-11.1663
관련	-11.1667
♡♡♡	-11.168
남녀	-11.1685
쯧	-11.1687
▁평점조절	-11.1688
넼	-11.1688
▁고스란히	-11.1688
▁엉덩이	-11.1688
▁인터뷰	-11.1688
▁임권택	-11.1688
▁찝찝한	-11.1688
▁클리셰	-11.1688
▁양동근	-11.1688
꺄	-11.1688
쌩뚱맞	-11.1688
▁서프라이즈	-11.1688
▁어우러진	-11.1688
▁주상욱	-11.1688
▁말았어야	-11.1688
▁헷갈	-11.1688
▁김강우	-11.1688
꿨	-11.1688
▁구역질	-11.1688
▁불후의	-11.1688
▁암걸리	-11.1688
▁신민아	-11.1688
▁활용	-11.1689
▁일베충	-11.1689
▁이범수	-11.1689
▁웅장	-11.1689
▁흥미롭고	-11.1689
▁잃어버린	-11.1689
봣습니다	-11.1691
▁알게해준	-11.1691
▁유지태	-11.1693
▁심각한	-11.1694
▁움직이는	-11.1694
▁은퇴	-11.1695
▁튀어	-11.1696
▁친절	-11.1697
▁그럼에도	-11.1697
▁광팬	-11.1699
▁지들끼리	-11.1699
마인드	-11.17
▁산만한	-11.17
점대라니	-11.1701
▁잘생기고	-11.1701
▁추락	-11.1703
▁어이없어서	-11.1704
▁간절	-11.1705
▁성숙	-11.1707
▁타락	-11.1707
▁선정적	-11.1708
▁불법	-11.1708
▁여왕	-11.1709
▁돌려줘	-11.1711
▁뻔히	-11.1712
▁198	-11.1714
▁신념	-11.1714
▁좋아한다면	-11.1717
▁없었으면	-11.1719
▁만들려고	-11.1723
▁몰입되	-11.1737
▁관객에게	-11.1739
▁아동용	-11.174
▁허무하게	-11.174
▁좋아해요	-11.1751
▁어린이용	-11.1754
▁애국	-11.1756
배우님	-11.1757
같았음	-11.1768
야되는데	-11.1769
▁전투씬	-11.1774
보고싶은	-11.1775
▁않았으면	-11.1779
▁심히	-11.1785
볼걸	-11.1814
하곤	-11.1833
▁하지말	-11.1839
재미잇	-11.1842
▁던지는	-11.185
▁빨아	-11.1853
쳐먹	-11.1853
빠지고	-11.1857
▁외치	-11.1861
▁누워	-11.1868
가능한	-11.187
▁의식	-11.1887
▁수준이하	-11.1891
영환줄	-11.1902
인간들	-11.1906
어울리는	-11.1913
않았나	-11.1917
▁되돌아	-11.1918
졌습니다	-11.1918
아줌마	-11.1923
느와르	-11.1923
싶을때	-11.1927
왜이리	-11.1927
▁조금씩	-11.1928
이쁘다	-11.1931
▁단편영화	-11.1938
보았습니다	-11.1943
그자체	-11.1944
존재	-11.1946
▁197	-11.1949
예능	-11.1956
▁찾아볼수	-11.1972
▁리메이크작	-11.1975
▁ebs	-11.1982
▁서스펜스	-11.1982
▁웹툰	-11.1982
▁펭귄	-11.1982
▁허무맹랑	-11.1982
웩	-11.1982
흰	-11.1982
▁베트남	-11.1982
▁놀래키	-11.1982
▁큐브	-11.1982
▁지났지만	-11.1982
▁환타지	-11.1982
▁강지환	-11.1982
▁특징	-11.1982
▁세련되	-11.1982
▁임수정	-11.1982
▁닥터	-11.1982
씨리즈	-11.1982
▁일요일	-11.1982
▁러셀	-11.1982
▁언론	-11.1983
▁퍼즐	-11.1983
▁어울려	-11.1983
귀요미	-11.1984
▁증말	-11.1984
▁일깨워주는	-11.1985
▁이해안가	-11.1985
▁영화자체는	-11.1985
▁푸른	-11.1985
▁가끔씩	-11.1985
▁빠져드는	-11.1988
▁알았더니	-11.199
▁자세히	-11.199
▁않았을까	-11.1993
▁조용히	-11.1995
▁닮아	-11.1995
▁지루했어요	-11.1996
▁놀라울	-11.1997
▁끼워	-11.1998
▁99	-11.2
▁여튼	-11.2
▁물씬	-11.2001
▁중반부	-11.2002
▁고찰	-11.2003
▁우익	-11.2006
▁소름돋았	-11.2007
▁깔끔하고	-11.2007
거든요	-11.2007
▁나누	-11.201
▁때문이다	-11.2011
▁엉성하다	-11.2015
▁낚이지	-11.2017
▁상영시간	-11.2017
95	-11.2018
▁말해주는	-11.2021
▁최고였어요	-11.2022
▁도통	-11.2023
▁생각나네요	-11.2025
멘트	-11.2027
▁됐는데	-11.2029
▁무서워서	-11.2031
▁공감가는	-11.2032
▁뻔해서	-11.2034
▁주목	-11.2035
▁감동도없고	-11.2039
교육	-11.2041
▁존내	-11.2045
하지마세요	-11.2059
▁볼거없	-11.2065
▁드러내	-11.2069
하지않는	-11.2075
있을때	-11.2077
러브	-11.2082
▁중반까지	-11.2104
엿음	-11.2109
시켜주	-11.2124
같습니다	-11.2132
▁진부함	-11.2137
▁재미있었던	-11.214
▁읽어보	-11.2145
겠군	-11.215
▁황당하	-11.2162
볼만한	-11.2169
죽이는	-11.2171
▁데려	-11.2178
▁뻔해	-11.2207
줬는데	-11.2211
▁만들어준	-11.2234
깎	-11.2235
OST	-11.2236
감사합니다	-11.2236
훨씬	-11.2237
같으니	-11.2244
극장판	-11.2246
▁부럽	-11.2251
거예요	-11.2258
괴물	-11.2265
픔	-11.2267
▁오글거려	-11.2268
로봇	-11.2272
콧	-11.2281
쿡	-11.2284
렴	-11.2285
▁ocn	-11.2285
▁묻혀	-11.2285
뱉	-11.2285
췄	-11.2285
콕	-11.2285
▁기대됩니다	-11.2285
▁매트릭스	-11.2285
▁보냅니다	-11.2285
▁오리지널	-11.2285
▁컨저링	-11.2285
人	-11.2285
긔	-11.2285
뒀	-11.2285
뺨	-11.2285
쉰	-11.2285
쌈	-11.2285
쌩	-11.2285
엎	-11.2285
재밌게봤습니다	-11.2285
톨	-11.2285
.,.,.,.	-11.2285
▁내러티브	-11.2285
▁재발견	-11.2285
▁어울린다	-11.2285
▁멘붕	-11.2285
▁삽입	-11.2285
▁하이킥	-11.2285
▁ᄅᄋ	-11.2285
▁잠수함	-11.2285
▁저절로	-11.2285
▁흡사	-11.2286
^.^	-11.2286
▁록키	-11.2286
▁묘미	-11.2286
▁간첩	-11.2286
▁위대함	-11.2287
▁생략	-11.2287
▁온몸	-11.2287
▁별한개도	-11.2288
▁언급	-11.2288
▁손색없	-11.2288
▁스티브	-11.2288
▁새롭게	-11.2289
▁떠오르	-11.229
▁잃고	-11.2291
▁잔인하기만	-11.2291
▁증거	-11.2292
▁대표작	-11.2292
▁깨알	-11.2293
▁역쉬	-11.2295
시리즈중	-11.2295
▁구리다	-11.2295
▁빡치	-11.2298
▁바랬	-11.2299
▁보느니	-11.2301
▁재료	-11.2301
▁해도해도	-11.2303
▁만들어주세요	-11.2303
동아리	-11.2305
▁딱딱	-11.2306
▁어쩌라고	-11.2307
▁전세계	-11.2307
▁가르쳐	-11.2308
▁내보내	-11.2309
▁원표	-11.2312
▁헐크	-11.2313
▁아쉽긴	-11.2318
▁모르겠는데	-11.2321
▁말이필요없는	-11.2324
안됐	-11.2325
▁별기대	-11.2327
▁이나영	-11.2329
▁더빙판	-11.2333
▁실소	-11.2346
티브	-11.2352
▁사나이	-11.236
▁필수	-11.2379
▁정치적	-11.2385
채널에서	-11.2408
황당	-11.2412
폭탄	-11.2424
▁모른	-11.2431
방울	-11.2436
내놔	-11.2442
▁민망하	-11.2447
▁악평	-11.247
▁제목부터	-11.2508
끼들	-11.2529
88	-11.2542
10000	-11.2544
퀄리티	-11.2553
넌	-11.2557
슈퍼	-11.256
▁겉멋	-11.2561
탈출	-11.2566
괜히	-11.2567
낮아서	-11.2567
젼	-11.2577
반복	-11.2581
스러웠다	-11.2582
방법	-11.2586
▁마음속	-11.2588
▁공짜	-11.259
률	-11.2597
쏠	-11.2597
엣	-11.2597
q	-11.2597
▁KBS	-11.2597
댐	-11.2597
흙	-11.2597
Z	-11.2597
▁두근두근	-11.2597
▁슬래셔	-11.2597
▁에일리언	-11.2597
▁이스트우드	-11.2597
▁인터스텔라	-11.2597
▁채플린	-11.2597
▁혹성탈출	-11.2597
댕	-11.2597
샷	-11.2597
륙	-11.2597
▁오타쿠	-11.2597
핳	-11.2597
▁홍금보	-11.2597
▁박신양	-11.2597
▁불면증	-11.2597
▁기분좋게	-11.2597
▁관람불가	-11.2597
▁엉엉	-11.2597
▁섭외	-11.2598
▁빅뱅	-11.2598
▁화려함	-11.2598
▁나타내	-11.2598
▁그들만의	-11.2598
▁잘만들어진	-11.2598
ᅩᅩ	-11.2598
▁케이트	-11.2598
▁묘하게	-11.2599
씁니다	-11.2599
▁유아인	-11.2599
▁닮은	-11.2601
▁말아라	-11.2601
▁스콧	-11.2601
▁묻어나는	-11.2601
▁맛깔	-11.2601
▁씁쓸한	-11.2601
▁미치도록	-11.2602
▁패턴	-11.2603
▁안타깝고	-11.2603
▁재평가	-11.2604
▁No	-11.2604
▁맞춘	-11.2606
▁느리고	-11.2606
▁당최	-11.2606
▁적절히	-11.2606
▁붙여	-11.2609
▁아까웠던	-11.2609
▁느낌이랄까	-11.261
▁악플	-11.2613
할때마다	-11.2615
▁케이지	-11.2615
▁공존	-11.2615
▁모든것을	-11.2616
▁창조	-11.2616
▁동료	-11.2616
▁신나게	-11.2617
▁웃어야	-11.2618
▁속아서	-11.2619
▁이번엔	-11.2621
▁심심해서	-11.2623
▁98	-11.2624
▁알수없는	-11.2624
붕괴	-11.2624
▁지금껏	-11.2624
▁장나라	-11.2625
▁용감	-11.2627
▁볼만했음	-11.2627
▁무얼	-11.263
▁많았던	-11.263
되었던	-11.2632
▁예매	-11.2638
▁종영	-11.2639
▁아니겠지	-11.264
▁일베	-11.2641
▁몽환적인	-11.2642
▁뻔하지만	-11.2642
▁만들겠다	-11.2644
▁노예	-11.2644
봣던	-11.2645
▁졸면서	-11.2649
▁허술하다	-11.2649
▁웃길	-11.265
▁멋있어요	-11.265
▁고향	-11.2652
▁최저	-11.2652
▁중요하다	-11.2658
▁불편하다	-11.266
올림	-11.2661
그릇	-11.2664
▁무겁지	-11.2679
▁생각해볼	-11.2682
해주길래	-11.2683
놀래	-11.2736
죽는줄	-11.2754
▁합쳐	-11.2764
파티	-11.2769
ᅳᅮ	-11.2797
버렸음	-11.2805
팬이지만	-11.2807
▁죽을때	-11.2815
쪼	-11.289
낳	-11.2891
드럽게	-11.2892
터지고	-11.2897
슬픈	-11.2897
녀석	-11.2902
잔인하	-11.2903
빼면	-11.2907
토록	-11.2907
교훈	-11.2908
결론	-11.2914
씁	-11.2918
ᅦ	-11.292
샹	-11.292
숫	-11.292
쿄	-11.292
▁스칼렛	-11.292
▁쏠쏠	-11.292
▁어설픔	-11.292
▁역사왜곡	-11.292
▁집어넣	-11.292
▁콘서트	-11.292
▁크리스토퍼	-11.292
댈	-11.292
됌	-11.292
샀	-11.292
쌀	-11.292
엌	-11.292
펄	-11.292
▁홍진호	-11.292
팡	-11.292
#	-11.292
▁맙시다	-11.292
프레데터	-11.292
바이러스	-11.292
▁나발이고	-11.292
▁탕웨이	-11.292
▁못생긴	-11.292
▁스텝업	-11.292
▁사다코	-11.292
▁오그라든다	-11.292
▁훈남	-11.2922
▁두근거	-11.2922
▁담아낸	-11.2922
▁둘째	-11.2922
▁과도한	-11.2923
▁저녁	-11.2923
▁용가리	-11.2924
▁무게감	-11.2924
▁이승기	-11.2924
▁고질라	-11.2924
▁이름값	-11.2924
▁과잉	-11.2925
▁웬만한	-11.2925
▁결합	-11.2925
ent	-11.2926
▁지루하지않고	-11.2926
▁때우기	-11.2926
▁감동적이었습니다	-11.2927
중요한	-11.2928
▁진솔	-11.2929
▁응원합니다	-11.293
▁환불	-11.293
▁내겐	-11.2933
▁위하여	-11.2934
▁무척이나	-11.2934
▁깔끔하게	-11.2934
▁스릴있고	-11.2935
▁팬이라면	-11.2935
▁줄리아	-11.2937
▁가치관	-11.2937
▁시간아까움	-11.2939
▁씨발	-11.2941
▁치열	-11.2941
▁차원이	-11.2941
▁따뜻하게	-11.2942
▁느린	-11.2944
▁멋있었다	-11.2944
▁봤었던	-11.2945
▁실화라니	-11.2947
▁2001	-11.2949
을위해	-11.2949
헤헤	-11.2951
▁대책	-11.2953
▁울었네요	-11.2953
▁느꼈던	-11.2954
▁젊은이들	-11.2957
▁바라보	-11.2957
▁심심하	-11.297
▁좀비물	-11.2983
▁첫장면	-11.2987
점드립니다	-11.2994
▁오락성	-11.3002
▁같기도	-11.301
해줬으면	-11.3014
▁맞지않	-11.3035
재밋게봣	-11.3046
나쁘지않	-11.3059
▁집중력	-11.3086
누르	-11.3098
▁밑에분	-11.3108
~~~~~~~~~~	-11.3121
▁난해하다	-11.3145
▁잃지	-11.3147
ul	-11.3157
로인해	-11.3163
▁평론	-11.3178
킴	-11.3216
끊	-11.3233
곰	-11.3235
W	-11.3235
뽑	-11.3235
캬	-11.3235
녹	-11.3236
움직이	-11.3247
할수밖에	-11.325
엉망	-11.3252
됴	-11.3253
▁리암니슨	-11.3253
▁묵직한	-11.3253
▁소름끼친다	-11.3253
▁휴머니즘	-11.3253
꽂	-11.3253
샬	-11.3253
칩	-11.3253
▁뭔내용인지	-11.3253
▁줄리엣	-11.3253
▁충무로	-11.3253
냅	-11.3253
횽	-11.3253
▁강호동	-11.3253
▁양조위	-11.3253
▁강혜정	-11.3253
▁신현준	-11.3253
▁흘렀	-11.3253
▁어떨까	-11.3253
▁불필요한	-11.3253
▁별볼일	-11.3253
▁어려울	-11.3253
▁몬스터	-11.3253
윤계상	-11.3254
스캔들	-11.3254
▁이순신	-11.3254
▁전문성우	-11.3254
▁정재영	-11.3254
김남길	-11.3255
▁침묵	-11.3255
▁유아용	-11.3255
▁0.5	-11.3255
▁레이싱	-11.3255
▁거대한	-11.3255
▁팔아먹	-11.3255
▁에로틱	-11.3255
▁촬영기법	-11.3255
▁서부영화	-11.3256
▁자칫	-11.3256
▁아시아	-11.3256
▁어려웠	-11.3256
▁프레디	-11.3257
▁황홀	-11.3257
▁꺼버렸다	-11.3257
▁촌스러운	-11.3257
▁갖추	-11.3257
@@	-11.3259
점드림	-11.3259
흥미	-11.3259
▁신파극	-11.3259
▁민망한	-11.3264
▁종합	-11.3264
▁와이어	-11.3265
▁오싹	-11.3266
▁졸려서	-11.3266
▁말할것도	-11.3267
▁정도껏	-11.3267
▁좋아할만한	-11.3268
▁느꼈습니다	-11.3269
▁아름다웠던	-11.3271
▁재미있던데	-11.3271
▁다를게	-11.3272
▁과장되	-11.3272
▁졸았다	-11.3273
▁억지스럽다	-11.3273
▁만들어졌다	-11.3273
▁앞부분	-11.3273
▁질투	-11.3273
버젼	-11.3275
▁호평	-11.3276
▁별다른	-11.328
▁남주인공	-11.328
▁도덕	-11.3282
▁알앗	-11.3283
▁어쩌라는	-11.3283
▁예수님	-11.3295
▁보여주려	-11.3301
거아닌가	-11.3353
▁들어왔	-11.336
▁보러갔	-11.3396
▁교감	-11.3429
전기세	-11.3456
닼ᄏᄏᄏ	-11.3469
▁풀었	-11.3502
하우스	-11.3511
▁굉장	-11.3528
뜯	-11.3591
J	-11.3592
빅	-11.3592
매니아	-11.3593
웬	-11.3593
저렇게	-11.3593
오히려	-11.3594
훔	-11.3598
gt	-11.3598
쵝	-11.3598
흥행	-11.3598
훼	-11.3598
죤	-11.3598
▁kbs	-11.3598
▁리즈시절	-11.3598
▁스탤론	-11.3598
▁인상깊은	-11.3598
촉	-11.3598
탔	-11.3598
▁에이리언	-11.3598
▁왠만해선	-11.3598
▁후덜덜	-11.3598
니콜키드먼	-11.3598
듀	-11.3598
▁김하늘	-11.3598
▁예뻐요	-11.3598
▁무슨내용인지	-11.3598
▁서부극	-11.3598
▁올레티비	-11.3598
▁로드무비	-11.3598
-0-	-11.3598
▁알맹이	-11.3598
▁이동욱	-11.3598
▁못미치는	-11.3598
▁나중엔	-11.3598
▁잘생긴	-11.3598
쥐어짜	-11.3598
▁뛰쳐	-11.3598
▁콤비	-11.3598
▁옹박	-11.3598
▁and	-11.3599
▁한정된	-11.3599
▁박해일	-11.3599
▁빵터짐	-11.3599
▁흔히	-11.3599
▁이성재	-11.3599
▁놓친	-11.3599
bbbb	-11.36
▁와이프	-11.36
▁체험	-11.36
짜증난다	-11.36
▁슈렉	-11.36
▁루이스	-11.3601
▁닌자	-11.3601
▁가득찬	-11.3602
▁이준기	-11.3602
▁새롭고	-11.3602
▁발휘	-11.3603
▁실컷	-11.3604
▁악몽	-11.3604
▁찰리	-11.3604
▁깨알같은	-11.3605
▁얼른	-11.3605
▁선율	-11.3606
▁저평가된	-11.3606
▁억지스러움	-11.3606
▁첨본다	-11.3607
▁습작	-11.3608
▁언제쯤	-11.3609
▁뇌리에	-11.361
▁얻을	-11.3612
▁찾았다	-11.3612
▁미안하지만	-11.3613
▁끝내주는	-11.3616
▁몰입하면서	-11.3618
삭제	-11.362
▁알고보니	-11.3621
말도안돼	-11.3632
▁결과물	-11.3633
▁잼있었다	-11.3634
▁울었음	-11.3652
때문인지	-11.3692
▁어린애들	-11.3694
ig	-11.3712
▁잠든	-11.3749
▁떠난	-11.3753
▁가졌	-11.3784
▁기분좋은	-11.3812
있으면서	-11.3818
팬으로서	-11.3831
재미가없	-11.3845
베르	-11.3847
아주아주	-11.3859
하다못해	-11.3872
찾았	-11.3876
절대보지마	-11.3903
파트	-11.3908
버렸어	-11.3933
▁긴박	-11.395
뀌	-11.3952
뻘	-11.3955
욜	-11.3955
ᄑ	-11.3955
▁듣보잡	-11.3955
▁부자연스럽	-11.3955
▁아메리칸	-11.3955
▁원맨쇼	-11.3955
▁웨슬리	-11.3955
▁찝찝함	-11.3955
▁최곱니다	-11.3955
▁황비홍	-11.3955
뺀	-11.3955
솟	-11.3955
씌	-11.3955
쫙	-11.3955
쬐	-11.3955
▁크루즈	-11.3955
젓	-11.3955
▁졸업작품	-11.3955
도그렇고	-11.3955
프로젝트	-11.3955
▁한예슬	-11.3955
▁문근영	-11.3955
○	-11.3955
▁추악한	-11.3955
▁단체로	-11.3955
▁지겨운	-11.3955
naver	-11.3955
▁뒤집어	-11.3955
▁쌍욕	-11.3955
봅시다	-11.3955
▁잔잔하니	-11.3955
▁페이크다큐	-11.3955
▁연관성	-11.3956
▁고현정	-11.3956
▁빨리감기	-11.3956
tion	-11.3956
▁유오성	-11.3956
▁골때리	-11.3956
허니잼	-11.3956
▁돋보임	-11.3957
▁매튜	-11.3957
▁꺼버림	-11.3958
▁완소	-11.3958
▁일어난	-11.3958
뿐더러	-11.3958
▁조인성	-11.3959
▁하얀	-11.396
▁끝내준다	-11.396
▁깍아	-11.3961
▁육체	-11.3961
▁화가난다	-11.3961
▁my	-11.3962
펑펑	-11.3964
▁2008	-11.3964
굿굿	-11.3964
▁대략	-11.3964
good	-11.3965
▁투표	-11.3965
▁일대기	-11.3965
▁느껴짐	-11.3966
▁적응	-11.3967
▁미흡	-11.3968
▁껏다	-11.3968
▁몇번이고	-11.3968
청춘	-11.3969
▁녹화	-11.3969
▁미치겠다	-11.3969
▁어이가없	-11.397
싶을정도	-11.397
▁찬란	-11.3972
▁괜찮던데	-11.3973
별한개	-11.3974
▁대가리	-11.3975
▁교차	-11.3975
▁어느새	-11.3975
▁추잡	-11.3976
▁창작	-11.3977
기억에남는	-11.398
시킴	-11.3995
을위한	-11.4007
ly	-11.401
무시하	-11.4036
돋보	-11.4039
▁밥먹	-11.4043
▁볼수없	-11.4069
▁즐겨보	-11.4078
지말아야	-11.4113
▁나쁜놈	-11.4123
▁드러난	-11.4188
졸립	-11.429
▁상업적	-11.4298
444	-11.4318
▁어색하지	-11.432
튜	-11.4323
펐	-11.4325
맴	-11.4325
덥	-11.4326
▁떠오른다	-11.4326
▁로보캅	-11.4326
▁멜깁슨	-11.4326
▁안봤으면	-11.4326
▁어벤져스	-11.4326
▁엑스트라	-11.4326
▁유치뽕짝	-11.4326
궈	-11.4326
귓	-11.4326
쌔	-11.4326
쑤	-11.4326
돕	-11.4326
욧	-11.4326
텀	-11.4326
툰	-11.4326
▁까메오	-11.4326
▁보면볼수록	-11.4326
▁스타일리쉬	-11.4326
뇨	-11.4326
▁노무현	-11.4326
▁적나라하게	-11.4326
▁페이크	-11.4326
괘	-11.4326
▁덴젤	-11.4326
▁무책임	-11.4326
▁부자연스러	-11.4326
생뚱맞	-11.4326
▁지하철	-11.4326
▁눈뜨고	-11.4326
▁장쯔이	-11.4326
▁즐거워	-11.4326
하셨어요	-11.4326
▁애절한	-11.4326
▁중딩때	-11.4326
▁금요일	-11.4326
지맙시다	-11.4326
▁피라냐	-11.4326
▁믿겨지지	-11.4326
▁훈련	-11.4326
▁옹호	-11.4326
▁최선을	-11.4326
테잎	-11.4326
▁외로운	-11.4326
▁차가운	-11.4326
▁에너지	-11.4326
▁가면갈수록	-11.4326
▁여진구	-11.4327
▁측면	-11.4327
▁효민	-11.4327
기승전	-11.4327
▁싱겁	-11.4327
▁나눠	-11.4327
▁나타난	-11.4327
▁시청율	-11.4327
▁어려워	-11.4327
▁한지민	-11.4328
▁크리스틴	-11.4328
연기너무잘	-11.4329
▁즐겁다	-11.4329
▁흥해라	-11.433
▁짧아서	-11.4331
▁영화관가서	-11.4331
보고난후	-11.4331
농락	-11.4332
▁회복	-11.4333
▁개념없	-11.4335
▁급전개	-11.4335
▁리암	-11.4335
▁독백	-11.4337
▁할말이없다	-11.4337
▁출연료	-11.4338
▁펑펑울	-11.4341
▁엔딩곡	-11.4342
▁행복해지는	-11.4342
▁문학	-11.4343
▁명곡	-11.4344
부조리	-11.4345
뮤지컬	-11.4348
아무튼	-11.4349
프랑스	-11.4349
슬픔	-11.435
1,2	-11.435
홍콩	-11.4351
▁의존	-11.4352
몸매	-11.4355
뻔한스토리	-11.436
흐흐	-11.4366
게아니라	-11.438
cgv	-11.4382
all	-11.4385
▁경쟁	-11.4397
기다리	-11.4412
수있을까	-11.4422
어쩔수없	-11.4437
▁따듯하	-11.446
기위한	-11.4479
보게됨	-11.4484
빵터지	-11.4519
▁찾으	-11.4544
▁실망스러웠	-11.4599
▁시간아까운	-11.4631
▁몽환적	-11.4656
▁아역배우	-11.4661
gg	-11.468
하시는분들	-11.4681
▁전형적	-11.47
렘	-11.4709
▁핸드폰	-11.471
▁OCN	-11.471
▁Very	-11.471
▁love	-11.471
▁아날로그	-11.471
▁어땠을까	-11.471
▁엄태웅	-11.471
▁옴니버스	-11.471
▁톰행크스	-11.471
갸	-11.471
좁	-11.471
쨩	-11.471
·	-11.471
롬	-11.471
썽	-11.471
짖	-11.471
▁끊임없이	-11.471
▁주옥같은	-11.471
쪄	-11.471
▁뚜렷	-11.471
▁로렌스	-11.471
▁일으키	-11.471
▁괜춘	-11.471
▁뒤통수	-11.471
▁유치원생	-11.471
▁보기드문	-11.471
▁다녀온	-11.471
▁빡쳐서	-11.471
▁재해석	-11.471
하셨습니다	-11.471
▁마피아	-11.471
▁신들린	-11.471
▁서서히	-11.4711
▁낯선	-11.4711
▁주지훈	-11.4711
▁토마스	-11.4711
▁좌파	-11.4711
▁도입부	-11.4711
▁관대하다	-11.4711
▁압박	-11.4711
▁토이스토리	-11.4711
▁설렘	-11.4711
클래스	-11.4712
▁가만히	-11.4712
▁짐작	-11.4712
▁멋집니다	-11.4713
▁거슬린다	-11.4713
▁조선족	-11.4713
▁낮춰	-11.4713
▁탐욕	-11.4713
기대안했는데	-11.4713
▁알겠으나	-11.4713
▁똥폼	-11.4715
▁반성해라	-11.4717
▁개봉했을때	-11.4717
▁불꽃	-11.4717
▁아쉬웠다	-11.4718
▁잭슨	-11.4718
▁먹먹해지는	-11.4718
▁실존	-11.4723
▁현빈	-11.4723
▁반지의	-11.4724
▁벌어지는	-11.4725
▁질질끄는	-11.4727
▁망했는지	-11.4732
채널	-11.4738
▁풀어가는	-11.4747
[	-11.4748
짠	-11.4748
꽤	-11.4749
했을텐데	-11.4751
통쾌	-11.4756
보고나면	-11.4776
▁얻었	-11.4833
죽이기	-11.485
▁따른	-11.4883
▁당황스럽	-11.4894
▁별반개	-11.492
끝났으면	-11.4985
잡아먹	-11.4992
▁터졌	-11.4996
생기고	-11.5026
▁탁월	-11.5069
훌륭	-11.5106
훌	-11.511
▁브루스윌리스	-11.511
얹	-11.511
훅	-11.511
ight	-11.511
ᅭ	-11.511
ᆞ	-11.511
’	-11.511
▁맥라이언	-11.511
▁손꼽히는	-11.511
▁스펙타클	-11.511
▁쌍팔년도	-11.511
▁어메이징	-11.511
▁어중간한	-11.511
쌤	-11.511
캅	-11.511
퍽	-11.511
▁ever	-11.511
▁고마워요	-11.511
▁정신건강에	-11.511
▁폴워커	-11.511
▁피터팬	-11.511
밭	-11.511
씽	-11.511
꿋	-11.511
톡	-11.511
▁숨막히는	-11.511
▁으리으리	-11.511
▁하루종일	-11.511
▁후유증	-11.511
▁조재현	-11.511
▁캐서린	-11.511
▁장만옥	-11.511
▁민주주의	-11.511
▁섬세하고	-11.511
▁고맙다	-11.511
▁어떨지	-11.511
▁버무려	-11.511
▁가깝다	-11.511
▁정유미	-11.511
▁사춘기	-11.511
▁고소영	-11.5111
▁이종석	-11.5111
▁어리석	-11.5111
▁어디선가	-11.5111
▁풋풋하고	-11.5111
▁테론	-11.5111
랍시고	-11.5112
▁다가온다	-11.5112
▁씹노잼	-11.5112
*^^*	-11.5112
▁김수로	-11.5112
▁김선아	-11.5113
▁이민정	-11.5113
▁for	-11.5113
▁쾌감	-11.5113
▁다르겠지만	-11.5116
과함께	-11.5116
▁MC	-11.5116
▁가족끼리	-11.5117
▁애썼	-11.5117
테이프	-11.5119
▁몇안되는	-11.512
▁감동적이었어요	-11.5122
▁치명적	-11.5123
▁팬이라서	-11.5123
▁린치	-11.5141
허허허	-11.5145
▁프레	-11.5164
중간중간	-11.5165
블루레이	-11.5166
짝퉁	-11.5166
아무것도	-11.5171
▁망쳐놨	-11.5188
흥미롭	-11.5206
▁잊혀지지않는	-11.5217
잘생겼다	-11.5226
▁심각하	-11.5233
▁댓글알바	-11.5257
▁울뻔	-11.529
▁억울하	-11.5298
잘모르겠	-11.5326
뻔했네	-11.5356
지마시고	-11.5365
▁실망시키지	-11.5377
▁심심할때	-11.5387
▁오그라	-11.5413
곁	-11.5415
삽	-11.5527
찜	-11.5527
륭	-11.5527
윙	-11.5527
꼼	-11.5527
댔	-11.5527
엥	-11.5527
햐	-11.5527
갤	-11.5527
\	-11.5527
짤	-11.5598
밌	-11.5956
걱	-11.5961
뭥	-11.5961
깬	-11.5962
뛴	-11.5962
셰	-11.5962
얕	-11.5962
쵸	-11.5962
핍	-11.5962
횡	-11.5962
늠	-11.5962
몹	-11.5962
뤽	-11.5962
붓	-11.5962
밑	-11.6275
얀	-11.641
늑	-11.6415
힙	-11.6416
뎌	-11.6416
‘	-11.6416
뜰	-11.6416
붐	-11.6416
쟝	-11.6416
깽	-11.6416
꺅	-11.6416
낱	-11.6416
놉	-11.6416
썅	-11.6416
얌	-11.6416
윗	-11.6416
짬	-11.6416
Q	-11.6416
낰	-11.6416
힝	-11.6416
뎈	-11.6416
밝	-11.653
헬	-11.6535
캔	-11.6892
ᅧ	-11.6892
곸	-11.6892
됀	-11.6892
슌	-11.6892
앳	-11.6892
짭	-11.6892
휼	-11.6892
“	-11.6892
굼	-11.6892
웁	-11.6892
팜	-11.6892
겜	-11.6892
|	-11.6893
및	-11.7029
떤	-11.7367
펙	-11.7384
첼	-11.7392
뵈	-11.7392
젬	-11.7392
ᅣ	-11.7392
乃	-11.7392
꾀	-11.7392
꿉	-11.7392
뱃	-11.7392
싯	-11.7392
쑈	-11.7392
융	-11.7392
뚤	-11.7392
텍	-11.7392
냉	-11.7551
맡	-11.7556
푹	-11.7557
뷔	-11.7917
돠	-11.7919
빽	-11.7919
빔	-11.7919
샴	-11.7919
섰	-11.7919
햄	-11.7919
댜	-11.7919
얔	-11.7919
깁	-11.8472
퀘	-11.8474
甲	-11.8474
떴	-11.8474
멕	-11.8474
쁠	-11.8474
쉘	-11.8474
욘	-11.8474
읎	-11.8474
캣	-11.8474
”	-11.8474
→	-11.8474
땟	-11.8474
욯	-11.8474
쟤	-11.8474
짚	-11.8474
쾅	-11.8474
쿤	-11.8474
훨	-11.8699
펼	-11.9057
칫	-11.9058
뭍	-11.9062
웹	-11.9062
♬	-11.9063
갚	-11.9063
귄	-11.9063
넉	-11.9063
뇬	-11.9063
댁	-11.9063
맬	-11.9063
뺐	-11.9063
퉷	-11.9063
훤	-11.9063
걔	-11.9063
룻	-11.9063
숴	-11.9063
웡	-11.9063
킷	-11.9063
곧	-11.9325
쩐	-11.9593
헷	-11.9687
챔	-11.9687
、	-11.9687
꿰	-11.9687
됏	-11.9688
젝	-11.9688
無	-11.9688
뮬	-11.9688
핰	-11.9688
괄	-11.9688
뤠	-11.9688
좃	-11.9688
죵	-11.9688
쨔	-11.9688
헛	-11.9988
봇	-12.0273
뷁	-12.0354
뿅	-12.0354
뿍	-12.0354
첸	-12.0354
킁	-12.0354
겅	-12.0354
겔	-12.0354
벡	-12.0354
쪙	-12.0354
믓	-12.0354
슥	-12.0354
쏜	-12.0354
칵	-12.0354
풉	-12.0354
넥	-12.0354
땜	-12.0962
녁	-12.1062
넴	-12.1068
눅	-12.1068
륨	-12.1068
뺑	-12.1068
썹	-12.1068
쒯	-12.1068
찼	-12.1068
굽	-12.1068
끽	-12.1068
잌	-12.1068
잰	-12.1068
쳇	-12.1068
텨	-12.1068
툴	-12.1068
퐁	-12.1068
홉	-12.1068
휙	-12.1068
흣	-12.1068
껌	-12.1068
얍	-12.1068
뒷	-12.1474
탭	-12.1834
깼	-12.1838
꽈	-12.1838
슐	-12.1838
』	-12.1838
굶	-12.1838
넛	-12.1838
돔	-12.1838
뒹	-12.1838
렜	-12.1838
밸	-12.1838
볶	-12.1838
쫑	-12.1838
꼐	-12.1838
넝	-12.1838
샵	-12.1838
춥	-12.1838
섀	-12.1838
챈	-12.1838
눕	-12.2671
뻗	-12.2671
캄	-12.2671
냔	-12.2671
벳	-12.2671
왁	-12.2671
졷	-12.2671
콱	-12.2671
퀼	-12.2671
팰	-12.2671
햅	-12.2671
『	-12.2671
갯	-12.2671
괸	-12.2671
끙	-12.2671
넨	-12.2671
뎃	-12.2671
뿡	-12.2671
헿	-12.2671
멱	-12.2671
욥	-12.2671
ᄡ	-12.3217
컥	-12.3578
갇	-12.3579
꼇	-12.3579
힛	-12.358
쒸	-12.358
밓	-12.358
읭	-12.358
컵	-12.358
혓	-12.358
궤	-12.358
랖	-12.358
줏	-12.358
꺠	-12.358
쑥	-12.358
뒈	-12.358
곀	-12.358
}	-12.3581
{	-12.3581
봅	-12.4578
잎	-12.4578
갘	-12.458
死	-12.458
ᄈ	-12.458
앰	-12.458
쫘	-12.458
쿼	-12.458
ᆪ	-12.458
깟	-12.458
닛	-12.458
딛	-12.458
딥	-12.458
떵	-12.458
롹	-12.458
잦	-12.458
짰	-12.458
쨰	-12.458
큭	-12.458
펭	-12.458
눔	-12.458
$	-12.458
옛	-12.5321
쫓	-12.5328
뭣	-12.5328
女	-12.5691
컹	-12.5691
뭄	-12.5691
쮸	-12.5691
쳣	-12.5691
팟	-12.5691
뺄	-12.5691
쏭	-12.5691
앱	-12.5691
♪	-12.5691
作	-12.5691
빰	-12.5691
촬	-12.6935
킵	-12.6938
ン	-12.6941
콰	-12.6941
떙	-12.6941
랔	-12.6941
숏	-12.6941
옇	-12.6941
찟	-12.6941
캉	-12.6941
퀵	-12.6941
팥	-12.6941
렙	-12.6941
믈	-12.6941
븅	-12.6941
뽐	-12.6941
웜	-12.6941
쥰	-12.6941
챦	-12.6941
냠	-12.6941
뤼	-12.6941
뮈	-12.6941
슝	-12.6941
웍	-12.6941
쨍	-12.6941
찹	-12.6941
롸	-12.6941
캘	-12.6941
밈	-12.837
퀀	-12.837
굉	-13.0036
눠	-13.2028
췌	-13.2035
텝	-13.4475
슷	-13.4519
햏	-14.2715
햌	-14.2716
츈	-14.2717
촐	-14.2718
챘	-14.2719
짘	-14.272
죨	-14.2721
뛸	-14.2722
덟	-14.2723
꿇	-14.2724
훠	-14.2725
짊	-14.2726
읊	-14.2727
왘	-14.2728
씸	-14.2729
썪	-14.273
쌉	-14.2731
숟	-14.2732
빴	-14.2733
벚	-14.2734
랗	-14.2735
냨	-14.2736
괭	-14.2737
⌒	-14.2738
흩	-14.2739
헵	-14.274
툼	-14.2741
챤	-14.2742
故	-14.2743
쥑	-14.2744
잴	-14.2745
윅	-14.2746
땔	-14.2747
닠	-14.2748
놧	-14.2749
뀜	-14.275
껑	-14.2751
홥	-14.2752
헴	-14.2753
촛	-14.2754
앍	-14.2755
쎈	-14.2756
뉜	-14.2757
훑	-14.2758
샛	-14.2759
덱	-14.276
낍	-14.2761
괞	-14.2762
휠	-14.2763
헠	-14.2764
츤	-14.2765
좔	-14.2766
꺾	-14.2767
횟	-14.2768
핥	-14.2769
폄	-14.277
큽	-14.2771
옜	-14.2772
샐	-14.2773
쁩	-14.2774
멧	-14.2775
뀔	-14.2776
휩	-14.2777
큘	-14.2778
콥	-14.2779
촘	-14.278
뺴	-14.2781
멎	-14.2782
핡	-14.2783
뵙	-14.2784
꺽	-14.2785
긁	-14.2786
딪	-14.2787
릎	-14.2788
낡	-14.2789
펏	-14.279
씻	-14.2791
녔	-14.2792
굵	-14.2793
뤘	-14.2794
셸	-14.2795
닳	-14.2796
켠	-14.2797
쥔	-14.2798
왼	-14.2799
닦	-14.28
픕	-14.2801
탤	-14.2802
딨	-14.2803
넋	-14.2804
빚	-14.2805
꽥	-14.2806
룹	-14.2807
뀐	-14.2808
뭡	-14.2809
얽	-14.281
썻	-14.2811
쫒	-14.2812
앓	-14.2813
쨋	-14.2814
껍	-14.2815
텅	-14.2816
꽉	-14.2817
붉	-14.2818
땠	-14.2819
멤	-14.282
둠	-14.2821
밟	-14.2822
겻	-14.2823
홧	-14.2824
틋	-14.2825
뿜	-14.2826
컸	-14.2827
뻣	-14.2828
옮	-14.2829
핸	-14.283
맑	-14.2831
뭇	-14.2832
찢	-14.2833
엮	-14.2834
빕	-14.2835
켰	-14.2836
팠	-14.2837
땀	-14.2838
쨌	-14.2839
쫄	-14.284
틸	-14.2841
띄	-14.2842
겪	-14.2843
껐	-14.2844
왤	-14.2845
뻤	-14.2846
쏟	-14.2847
닙	-14.2848
딧	-14.2849
꿔	-14.285
섞	-14.2851
듭	-14.2852
획	-14.2853
겉	-14.2854
줍	-14.2855
쁨	-14.2856
늙	-14.2857
됩	-14.2858
늦	-14.2859
볍	-14.286
찝	-14.2861
꼈	-14.2862
묻	-14.2863
똑	-14.2864
랐	-14.2865
깊	-14.2866
떻	-14.2867
렸	-14.2868
렇	-14.2869
봤	-14.287
